1111111110110110
1111111111011111
10010
10011
1111110
1011110
1111111110100100
1111111111100001
1111111110111101
1001010
1111111101100111
1111111110001010
1011110100
1001101000
1111111100110101
1111111100100011
10011101
1111111110101111
1100000
10011001
1111111101010010
110110
1111111111110111
1010011
1111111110100111
1111111111001010
1011011
1101111
1111111101100100
1111111111001111
10011
1111111111101001
101101011
1111000
110111011
10011010000
11011000010
100100001011
101110100100
11000001010
11001011001
10101010111
1111111110001000
1111101000101010
1111100000101110
1111110101001001
100110001011
11000001011
11110011110
11101111010
1110110000
1111111111111110
111000
1011010
1111011
10100101
1111111101011000
1111111101011000
1100101110
1111111101111101
10110110
1101101001
10110101001
101001101001
101110001000
1100001
10010001
11101111
10000110100
100001101111
100001011110
11001101101
1010101010
11001000
1111111010000000
100110001
1111111010111100
1111000101
10111100100
11000000111
101011111010
10101010101
0
1111111110010100
1111111110010111
1111111111010110
1111101111100000
1111111111010010
1111110111000101
101000000001
11000000110
1111110111110111
1111111010111001
1111111001111101
1111110001110100
111101011
1101101100
1111110011110001
100110001110
100010000010
11111110010
1100111000
1111110100011100
1111111110001100
1111111111001001
1000101000
1010101
1111111100001011
101000010011
11001101101
10010101101
10101011
1111111101110010
0
1111100111111100
1111111000011001
101000000
10010101010
10100100001
11100010001
1111111011001101
1111110110100111
1111101101001001
1111010011100111
1111110010010101
1111110111001011
1111111000110001
1111110110000111
110101010
100111101
1111111101000001
100010101
10010010000
11100001
1010111011
1111110110110011
10000100101
10001110111
1111111011010011
1101110111
1111111101111011
10001000
1111111001001000
1111101011101001
1111111000001010
1111111111000011
1110011
10010111011
11010110111
10101010
1111111010001101
1111110011010110
111
1111100111000101
1111110001010010
10110101
1011100010
1011000101
1111111101100000
1111111010111110
1111111100011100
11010110
1111101010011101
10000000111
1110110001
100011001
1111111000110001
1001011110
1111111101101110
1111111110000011
10101000101
1111100101010000
1111110001111100
1111111010100100
1111111000011001
1010
101100011
1111111101101000
1111101111001111
1111011111110011
1111110000000011
1111100110101011
1111101011011101
1111101001111100
1111101000000101
1111110001111110
1111110010111110
1111110110111100
1111111001000001
1111111110001111
1111111110001000
10000010010
1101100100
1111110010101001
1111111101111011
1001010101
1001010
1111101001001100
10110011
1111100111010001
1111111101110000
1100000001
1111110011110100
1111110011101011
1001101110
1111101111100110
1111101111111111
1111110011001010
1111101000101100
1111101010011010
1111110100101000
1111110101000010
1111101000000010
1111111011111010
1111101011100011
1111110011110000
1000011000
1111111110100101
11011101
1110000101
11001101
1111111
10111001
101000110
1100101111
1111101001111100
1111111110000101
1111110001011001
1111101011101000
1011011100
1111101101101010
1111111000101011
1111101110000100
1111101001100011
1111110011100001
1111110100110001
1111101110001110
1111110000011011
1111111001010100
10001000
1111110101000010
1111111110010100
1111111111101000
1111110000001110
1101
10101011101
1111110111111110
1111110110110110
101000000
10010100100
1100100101
1111100101000100
1111111010011110
1111100001110100
1011110011
1111110111001011
1111110001101101
1111100101100010
1111101011100101
1111111100101111
1111110110100000
1111101110111011
1001110
111011010
1111111111001000
1111110100101111
1111111000100111
1111111011110000
11101000
1111111011011000
111110000
1111111001001100
1111111011001100
1000101100
1111111101101100
10001101
1111110010110000
1111110110111000
1111101101100110
1111101111101100
1111110111010011
1111100101010111
1111100010000101
1111100111111001
10111011
1111110011111001
1111100011010011
1111111000110010
100001010
1111111111101010
1111111101001100
111010011
1111111001110011
1111101001011001
1111101000011101
1111110001011111
1111110001110111
1111110001011101
1111110010110010
1111110000110100
1111110111110011
101001100
1010000011
1000110111
1111101011010110
1111111010000100
1111100001100111
1111111010011011
1111111011011011
1111110110100101
1111100100011100
1111011100010111
1111010110011001
1111111101111011
1111110010000101
1111111011101111
10011001
111110011
10111101
11001101
1111111101001000
1111101101111101
1111110100111110
1111110011010011
1000101
1111101100100010
1111101110101100
1111101111111110
1111110110100011
1111110111010101
1111110111001101
1111111111111111
1111011010100110
1111101110101011
1111111101011001
1111101011001010
1111111111000001
111011
1111110110110011
1111110111111101
1111100101011010
1111111011000111
100010110
1001000
1010100110
110100000
10000010011
1101001101
100001111
1111100111
1111111001011000
1011001001
1000110111
1111111001100001
110100111
1111111100100100
1111110111000000
1111110100110001
1111111011001101
1111110001101101
1111110110000011
1111100010011100
1111100101010000
1111100111010001
1111110110000010
110110111
1111100001110110
1111111100110111
1001000111
1011001010
1100111000
1101111101
1011010100
1100001000
1011010001
10100101011
11001111100
10000011010
111110
1110111111
1011110110
101100001
10101101100
1111111111000011
1111110111100010
10000111
101011
10111110
1111101111001100
1111101010010011
1111111001001100
1111101011001110
1111111010010100
10010000100
1111100110001110
1111111011000101
1111111000
1111111110001111
10011
10001101101
101100001
100010010
110110100
10010010010
11111110011
1100010010
1000110011
110110101
1101100001
1001101110
1111111100101110
110000001
1011000001
1111111111100110
11101010
1111111011011110
1111101111110011
1111111011011010
1111110010111011
1111101011101101
1111111110000010
1111011101
1101001101
1101
1111110011000111
1111101001011001
1111111000010101
1111111101010001
11101111
1011000100
10010101010
10110110011
1110011010
11100101
1001111
110101111
1011110110
101100110
1111111100001011
1101011110
1010001001
1000011100
1010010101
1111111110111010
1111111001000000
1011010010
1111110100010001
100000010
1000000111
1111110011111001
10111010
110111011
1111010111101110
1111110000000000
1111110111010001
1111111001010011
111111
1111111111000100
1000010111
11010001111
1111011010
1010001
10001111
111100001
1000011001
11101110
100011011
101110000
11100010111
1011010111
1111111110110011
1111111010010111
1110011111
10001001101
1111101110010101
1111101001011001
110110
1111101011100011
1111111110010110
10010011100
1111100111010010
1111011011101110
1111100010000101
1111100110110001
1111111011110011
1111111011110110
10011100010
1011111100
1111111010011111
1111111110111011
10000010
1111111110100010
1000101000
1111111110011001
1111110010000011
1111101111001000
1010
1100001101
1111111100110011
10100100
1010010
110001001
1111111011100100
1111100111101010
1111111001100000
1111111001100000
1111110000101011
111011010
1111110010001111
1111100001100000
1111011100100111
1111001010010100
1111011111000001
1111101101110011
1111110100000111
1111111100111001
1111111110001010
1111111111111000
1111111101001110
100101111
1000110001
1111101011010100
1111101110001010
1111100101101110
1111100101010111
1111101000000011
1111100101100100
1111100111011111
1111101000101001
1111110011111111
1111111101101110
1111111001010110
1111111011110100
1111101000111011
1111101010011001
100110
1111011110010011
1111001010110111
1111010101100100
1111010100110101
1111011100111100
100000100
1111111000100100
10100011000
1111110110111100
1111110001011001
1111111100001111
101001000
1111111111010001
1111110101001100
1010011
1111101010111011
10101011101
1111111100111010
1111100010110001
1111010110111011
1111100011000110
1111101100101011
11100111
1111101000111000
101000
1111101111010100
10111111
1100000001
1111011100110011
1111001110111011
1111010000010101
1111101110011000
1111101111100010
1111101110010110
1111111111000111
1111111000000011
1111110000101101
1111111001000000
1011100
1111111101110110
1011010011
1111111101100101
110101011
1111101111110011
1111111000110111
1111110000001010
1111010111010011
1111100101000101
1111110101111111
1111111111000010
11011110
1111110011101110
1111111111000010
1111111010101011
110011001
101000000
1111100101101111
1111100110000101
1111000101011110
1111101000011000
10101
1111111000110011
1111111000010100
1111110101110100
1111111110100000
11100000
1111110111010111
1111110100000010
1111111101110100
1111111011010100
111111101
1111110101011111
1111111101100011
1111101010010000
1111111101011001
10010010011
1111110011110010
1111110010111011
1111110001110001
1111111111011101
1111111111101111
1111111100000011
1111111101000011
1111110010000011
1111010101100010
1111001111110001
1111111100011111
1111110110110000
1111101110101110
1111101101010110
1111111010110001
1111110101000000
1111111001111110
1111110010000100
1111110000111111
1111111110011000
100010100
1111111011011011
1111110100001100
10011010011
101000111
1101111100
1111111101
1000111001
1111111011101110
1111111011100010
1011000100
1101001
1111111101110111
10000101
1111111110100101
1111010101101000
1111100010010000
1111100111011001
101010110
1111110101000110
1111110100110111
100110110
1111110111101000
1111111010101110
1111110100010111
1111101111100100
1111110011001000
1111111010101111
1111111001101100
10010101
1111110011101110
1100101011
10110000
1001101100
10110100011
10011010100
1111110010101010
1111111101111100
110011111
101010
1111111110110000
1111111111000111
1111111100000011
1111101010110111
10101011
1011001111
1111111111100011
110001100
1111111000111111
110000000
100100
111100010
1101101
111101100
1111111111011000
1111110111001010
1111111101100111
11111000
11001
1111111100111100
11111110
10000
1111111001010110
10000010101
1111101111010110
10011001001
111111011
1111111110110111
110
111000
10101111001
1111111010010001
1101011011
110010001
1000011
1111110111011110
1001010110
101100011
1111010001
1101001111
111100011
1111111111010101
1111111011110000
1111110011111010
1111110100111100
1111111111111000
1111111000010011
1111111000111110
1111111110011100
1111110011101010
1111110010011011
10111101101
1111111110000011
1111110110100000
1010101010
1111111111101110
1111111111101000
1111111101110101
1111111111011001
1111110000110000
100000111001
1001101001
10010100010
1010101101
10100001001
1110100010
10010111010
1010000011
1111111000100110
10011011
10011111010
1010011110
111011101
11101010010
1111101100010011
1111110010100011
1111110111000110
1111010110010001
1111011100010000
1111110101100110
10010101001
111110111
1111111110000001
10011000
1111111110010010
1111111111111111
100000
1111111111100001
1111010
1111101110100111
1111110110111111
1111101010001000
1111111011110111
101100010
1111100100110110
1111111000100100
10010000
1111101101000010
1111101111010100
10110100111
10010001110
1111111011101110
1111110010101001
10001101101
1111111011111000
1111110001110000
1111101100000000
1111111010011001
110010
1111111111110001
10101100
1111111110010010
