1111111110001110
1111111110000111
1100010
1111111110100011
1111111110110011
1111111111101011
10001101
1111111101111101
1111111110011011
1111111101110011
1111111110011011
1111111111011000
1110001011
1101100100
1111110111001000
1111111111101101
100101
1010111
10100101
1111111111001111
1110001
1111101
110000
1111111101011001
10
10000000
1111111101010110
1111111101111011
1111111101011000
10010010
10001001
1111111110010011
10001101
11011000
1111110111
1101110010
1000
11110
10001001
10111110000
110001000101
111011111000
1001010010
1111110010000011
1111100111001101
1111111110101011
1110001010
100011000001
110010110000
101001000010
1110000011
1101110
1010011
1111111101011101
1111100
1111111101010100
1100110
111100
10001010001
1111100001
11000100000
10011111110
1111100000
10011010011
11111111110
110110000
1101001101
100111010
1001001110
100100110
11100000
110001111
1111111110001001
1101111110
110100110
111010100
1111111010100110
1001110000
101110111
1111111011010000
1111110110001100
1111110001101000
1111111110100100
1111111110101110
10101
1111011
100110010
110000110
1111111101101010
1111101111111011
1111110001110000
1111100100001010
1100001010
1001100010
1111111111100111
1111111111101000
1111101101000000
1111101010001001
1111111011011011
1111101111011100
1010000
1001110100
1101101010
10100101001
1001000011
10010011001
11111100111
11001100111
1111111001010000
1111111101100001
1111111010001011
1111111111101001
10100001
1111111111001001
1111110111000100
1111111000011011
1111011100010110
1111101111100001
1111110010101101
1111111000100111
1111101100110111
1111110000111111
1111100001101010
1111100101111101
1111110100000111
1111111011011000
1111110110100010
1111111100000110
1000101001
1000001000
1111111000011010
1111111001101100
1010110011
1111111111001010
10100001111
100001010001
1111110111110001
10000
1111110010001011
1111000101
1111111110001001
110110
1010111101
1111110100001010
1111011000010101
110010100
11111001
1100
101001001
1111110000100110
110
11011000
1111111000111110
1111111001110100
1111111111001000
1111111001100111
1111110010101001
1111111011100000
1111110110101011
1111111101000010
1111101100111110
1111110110110000
1111001000
1000111101
1110000101
1011100010
1010100
110001110
1111111111111011
1111110101110110
1111111011101111
1111101100110111
1111111011111111
111111111
1111110111000011
11100100
11000001
110010000
1111111000110100
1111111010001111
1111111000000100
1111111101101001
101010000
101100111
1010111
110000011
1111111100011011
1111111001000010
1111111111010100
1000010
1000010011
1111110011001000
1111101100001111
10000101000
100011000
1010011100
1111000
1111101100001000
1000001100
1111110111101010
1111111111101101
1111111101010010
1111110001100011
11111010
1100
1111111100110101
1111000
1111110101010000
1111111010000110
1001110111
1111110100010001
11010011
1111010001
10000111001
1010
1111111101010101
1111111100110100
1111111000101110
1111101111010101
1111111001011111
1111111101001001
1000110011
1111101001111100
1000011000
1101010111
11100101010
101110110
1111111100011110
1111101001010111
1111111010101101
1111110110101001
100110110
11010111
1111111010110000
1111110100010011
1111111011111110
1111111000100010
1111111000001100
1111111000001001
1000110
101111100
10101100
1111111001100001
1111101111000001
1111111010110110
1111111001010111
1111110010001011
1111110000111100
1111111100001111
1111101010001100
1111111100000110
1111111000100001
0
11000101000
1111111010000100
1111111011000111
1111010100101000
1111111011110100
1111110001010000
1111110111111001
1111110011111110
100011000
1011100101
10011000100
10011110
1111111101001001
1111111000100011
111
1111111010001001
1111111110100110
1111111100101111
1111110111111110
1111011
111101000
1101001010
1111111101101001
11111011100
1111100111111110
10000100110
1100111000
1111111101101111
10100001101
1111101101000111
1111101110011010
1111110000100110
1111101110010111
111010111
101101
11011010
11100010001
11111101010
11010100100
101100010
1111110110100001
1110011010
10111011010
1011011111
1010110110
10101010110
1100111110
1100000111
1111001101
10111001001
11011110010
110100011100
1111111001110101
10110111010
1010110100
11101
1111110010010001
1111111001000000
101011101
10101110
11000110001
11101111000
100110110111
11111011100
101000101111
11110100000
1010111000
1111111110000111
1111111101101000
101100110
1001000110
1001110000
1111110111000010
11001011
1101000010
1000111111
1111110010
111100000000
111001111110
1000100001011
11110011
101000111001
10011011110
10001010
1100010101
1011111010
1110010110
101101001
100010101100
100011000010
1000001011
1110111010
1110011001
101101
1111110111000000
1111110010110000
1111101111100110
1111101010101100
1111110001010001
1111111100011111
1111111110001100
1000001101
10010011011
10101100111
10011011010
110111111010
100011010100
100101010001
1001100011
11100001001
10110001010
1111111001101100
1101101011
1100001000
110101100
1111110101000010
110010001
101011
1111111111101110
111111001
101101011
101110001
11101101
10010011
1111110010000010
1111100011100011
1111101101000010
1111111100001010
111010
1001011110
1000110101
111010111
1010101101
11101110111
1000101010
11001111111
1111111011110110
111001010
1101100100
11011100
1011010111
111100100
1111111110000011
1111110010101100
110101110
1111110010000001
11111010
1111111001011111
1000
101000110
1111111110100110
1111111100101110
1101111
1111101111101001
1111110110110001
1010111000
10100001111
10100010111
1111111101101010
11000
1111111110101000
10000010110
1111100011000000
1111110101011000
1111101100111000
1111111010101100
10101110001
101010111
1111011
1111111011000011
1111101100101100
111111110
111111
1111111110000101
10001010001
1111110011110100
1111111010000110
1011010
110010011
1101100101
100000110
1111111010010100
100000001
10010000010
11001100100
10111001000
100000001
1111111010011111
1111111011010110
1010110001
100010
1111111100001101
1111101010111010
1111110100111111
1111100100001000
110011
1111101000010010
110100
1111110010010110
11010010
11111
1111110001101011
1111111110001100
1111111101100110
1111111101101010
111000011
10000101110
10111110001
1100101100
1001010110
1001111100
10001000011
111100101
1111111110110100
1111111010100110
1111110110001100
1111101110101001
1111110100101110
100000111
1111111001100110
1111101100101111
1111110101011110
1111011101010110
1111111111111111
1111110101100101
1111000111
10100011111
1111110000011101
1111101001100100
1111100100001110
1111111110010101
11100101
1001010101
10011111000
11111010110
11100100100
10111101110
10111101110
1111111100001111
10000
1111111001000000
1111110111001000
1111110000001101
1111111100111001
1111111100001010
11011
1000001001
1100111110
11011100100
10011001000
1111101111111101
1111110010000011
1111110110101101
10001000101
100110010
1111100101011110
1111110000010000
1111110001011010
1101100111
111111
110011111
10011111
11101000001
100011101111
11001111101
10000001000
1111111110001100
1111110000001110
1111101110001110
1111111111100011
1111110000011110
1111110001111001
1111111111010010
100011
1111110010100100
1111101111101100
1111010
1001011010
1111101000000110
1111111010010110
1111111101100001
100001111
1111101100100010
1111110010111110
1111110000111011
1111111101001010
1111011110
10011100010
111011110
1111111100010111
10001101000
10001011011
1000
11001111
1111101111000110
1111110001000011
1111100100010000
1111110011110111
1111110010101110
1111111000110001
1111110100011110
1111110111111010
1111111100011011
1111110000000011
1111111011110101
1111101011110111
1111111000000110
1111111101011010
101011001
1100100011
1111100110111011
101011
1111111100000100
1111110101011011
10100011
1011001101
100111101
100001111
1111111000111101
1111111001000001
1111110010010110
1111110100111001
1111111011001011
1111111001010111
1111110001010111
1111101010001001
1111110011111111
1111100111010001
1111101001010000
1111100110010000
1111011110100000
1111010100001101
1111110100011010
1111110101000111
111011000
100011
101001110
1111110110000001
10110111
1111111100110101
1111101011101011
1111111100100111
1111110110011100
1111111111010111
1111111010000001
1111110111010001
1111111001010011
100000
1111111001101001
1111110110011111
1101110
1111111010001111
10001
1111111101011110
1111110001110001
1111110000101100
1111110101111101
1111110010111010
1111001100101111
1111010000000000
1111010101010001
1111110110101101
1111111110111001
100111
1111111101111110
1111101111111101
10000110
110110100
10111000
10110100
1111111000101011
1111111110110010
1111111001101110
1111111111101101
1111111011011100
1010101100
110010011
100110110
1111111111110111
101101111
1101111000
1011010000
1111111111010010
1111110001100101
1111110010110101
1111101100000001
1111001001110110
1111010000101010
1111010001101001
1111110000001000
1111111101001010
1111111110101101
1111111101010001
1111110100010000
1111101100001111
1111101001000010
1111110010110011
11000010
1111110110111001
1111111011011010
1111110000001100
1111110000101111
1111111000100011
10110101
111100101
11110011
1111110110111111
10011110
1110101101
10000010000
10111001100
1111111011010011
100100
10001011
1111101000011100
1111101111101010
1111011001101001
1111100110010110
10101110
1111111111101010
1100110
101100010
1111100011100010
110
1100111
1111111011000010
1111110011110101
1111111001011000
1111110100101011
10001101
1111111001101010
1111110110000010
1111111011101001
1111111000001011
111101111
10001001110
10111010
1111110110110001
1111100001
1110100100
11111101
10000111
1111111110110001
1111110010000100
1111110101001001
100111010
1111111101011100
1101011
1111111101011110
1111110110111101
11011010000
1111110110000101
1111110001101111
1111111110010011
10111000
100011011
1111111000101110
1111111111110110
1010011000
1111011110000101
1111101010011100
1011100011
11000100001
100000001000
11101111001
1111111100011111
1111111110110001
111110100
1001001010
1111111100001101
10100110010
1111110011110010
1111111011011001
1111111110111110
1011100
1111111111100100
1111111101110000
1111111101100101
1111110100100011
1111100110101110
1111101100000100
1000111111
1111111100111111
11001011
1000100100
10000101110
100010000100
10000111000
1111111010110100
10010101101
1111110111110010
1111111010100100
1000110001
1111111100000001
1000111011
1111111010111000
1111101001110100
1111110011010100
1111101000111011
1111111111111001
100100100
1111111111111011
1111111101110000
10100111
10001000
1111111110110110
1111111110011000
1111111111011010
1111111101000011
101011101
110000000
111011000
11000000011
10000110011
11011110101
110110011011
11000011000
1111110111111100
111111101110
1111101110
1111111001111101
1111111000100010
10011000101
1010001100
1111111110100001
1111111111000101
1010
1110011
1111111101010111
1111
11101
