1100110
0
100101
1111111110001011
1111111111000110
10101000
1100000
1111111101100011
1111111111001010
1111111110111101
1111111110101110
1101000
1111110101011100
1111110001111100
1111111100111000
1111111110011100
10100101
1111111110001101
10010111
1111111111000111
10011000
1100100
1111111111101111
1111111111001100
1111111101100010
111011
10001100
1111111111101111
1111111101101010
1111111110110111
10101111
1111111110011100
1111111101000010
1111111010001101
1111110010100001
1111101011100010
10011
1111111011000110
1111101011101001
1111111100011110
1111111100010110
1111111011111110
1111101000
1101111101
11001000010
1111101110010000
1111001000110110
1111010010111100
1111011010101011
1111010110111111
1111100100011111
1111110110000010
1110100
100011
10000
1100010
1010000
1111111110011100
1111110110101101
10010111001
10000101100
1111100001010001
1111100011011001
1111010000100010
1111100000011111
1111111010111101
1111111110101000
1111111110100010
11111000
1111111000001111
1111110010100111
1111100101001110
1111110111011101
1010111101
10111110011
10010000100
1101001000
1111110001001011
1111110011111001
1111110010111111
1111100000011111
1111111100000010
10001110
1111111110111100
1111111101111010
1111111110001110
1111111010011001
100111101
10001100111
1111011101011101
1111001101011000
1001
10001011
1111110010011101
1111110101000001
1111110110111111
10001110
10100001101
1111111110000111
1111111101000000
11001110011
100111000111
111100000010
110010101001
100011001011
1111110001101100
1111100000110011
1111100110001010
1111001101111100
1111011000001011
1111101011010110
1111111111101101
1000010
1111110011111100
1111110111100111
1111111010100010
110100100
1111101010011001
1111111111100010
1111110100001100
1111110010100001
1111100110110010
1111110111000111
1111111111001000
1111101111000110
1111110001010100
1111101011111110
10100110100
10011111000
10100011010
11110100101
110010001111
100110000010
10011001010
11001011
1111101101001100
1111101100110111
1111011101101001
10000101
1111101000100101
1010110
1111111110110011
1111101000001110
1111111110000110
1111110111101011
1101100000
1111111011000011
111101111
1111111010011001
1111111111010110
1111110010010010
1111111010000111
1111110101000100
1111111111000001
1010101001
10111000000
1111001000
11000001110
10011101000
1111000111
1111111011000010
1111111011001101
1111110101010001
1111110100110010
11111010
1111111101001001
1110100001
1111110010000000
1111111110111100
10010111
11011011001
1111110111101011
1111100110100111
1000001110
1111111110110110
11101101
110110
1111110110000011
1111111011000101
1010
111100010
1111101110
10110001001
100111010010
101011011111
10001000110
110110101
1111111110010101
1111111011111010
10010000
10001000
100110101
1010101111
1111111000110001
1110101001
1111101100111100
1111111101010011
1011101111
100000000010
10011111
1111110010011110
1111110101101101
1111111100001101
1111111011110011
1111111011010001
1111111011011011
1111111100010011
1111111110011101
1001000110
10110001011
10111111111
11101110001
100110000001
1001111101
1000001
1111110010111101
1111111001101101
1111111011110111
111100000
10011011
1111111101101010
1111110011100111
111101001
1111110000110110
1111110010110011
10000101110
10110100010
1111111111101001
1111111110001001
1111110011111111
1111110000000110
1111110110000010
1111111100011011
1111111010010000
10010
1011010011
1001110111
1111110010
11100101110
11011100001
10100110100
1111111101111000
1111111011000100
1111111001010111
1111111111111111
1111110111001010
1111111010100101
1000110101
1100100
110110110
10001110
10011110011
1000110
101000100
1010000010
100110010
10010111
1111111100100111
1111111010011011
1111110100010110
1111110011010110
10011111
1011011000
1000010001
1100110100
10111100101
11101010100
10101111101
1111110111100100
110100000
1111111001101110
10000110
1111111110111010
1100001
11100001
1111111101010110
100000111000
100101010
100110101100
11000110100
1111111101011111
1111110100001101
110010010
1110111100
1011010011
101010001
1111101100100111
1111110111101110
1111111101001111
100111100
1110111000
1010100100
10010010110
101101011001
110010001101
1001111110
1111101100111100
1111101110110010
1111111110110001
110100100
101100101
1010110000
1101100100
1010101111
100111
1111111101110001
1010111010
11001100
1111111011110011
1000101110
10101110001
100001000
1101000010
1111110000011111
1111111100001111
101011101
100110101
1010010100
1111111110010111
100110
1010010100
101011111101
11101111010
1000110000
1111100101000001
1111111100101101
101001
110010011
1000011000
110011100
1111110000
1001101101
10111001101
1110100001
0
10001110111
1111111010101000
1011010010
11111011
1111101101110101
1111101101110001
1111111110100100
1010100
1111111100001100
1100010
1000111101
1111110101011101
1111110101100000
1111111111000011
10001010101
10000101001
1111111001001111
1111101100010010
1111110100011111
1111111100001101
1111111001101101
11010000
1111111111001101
1111111001001100
100110000010
1111101110011011
1111111111100100
10100101010
10111110111
1111110
1111110001100011
1110010110
1111110010011001
1111111001111000
1111110111010000
1111110101001010
10000100
11101
10001
1111111110001010
110000010
1000001000
11101011
110111010
1111111000011010
1111110111100000
1111111000100101
1111111100110111
1100011
1111111100010111
1111111011111101
1111111100100110
1101000100
1010111101
1011100000
1111111101000110
1111111011100101
1111110111111101
1111110111101101
1111100011
1111110011010000
110110010
1111101110110001
1111111011110001
1111111110011100
1111101111111011
1111111011110010
101100011
1011001011
110011101
101111010
1111111011111110
1111111001111000
1111110001110000
1111110100101001
1111111011110101
1111111011010000
1110000
110101
1111110101101010
1001000101
1111000011
1001011
1111101101100011
1111111011110110
1111111101000110
111001001
11010101
1111111110011100
111010010
1111111100000010
1111111100110111
1111110001000010
1111101010101101
1111111010100101
10111111
10001000111
1111110011
1111111111010000
1111110011001001
1111101111101010
1111101000011011
1111111001000101
1111111111001000
1111111000001010
101011010
11101010
10010010
1100000010
111011001
1111110100111110
1111110010010010
1111101111111110
1111111100111100
100001110
1111110011101111
1111111101011011
1111100011
1111110111000101
1111110010111110
1111110000101000
1111111000101111
10000101
1100011000
10100111110
1010110111
1111110001101101
1111100100001000
1111100100011011
1111101111110001
1111111100000000
1111111010001111
1111111001101001
1111110011010001
110010001
1000010010
110010010
1111111010110011
1111101101000101
1111101001100111
1100110011
10010001
1010101
1111101110100011
1111110001011100
111010100
1111111000011000
1111110110100111
100101
1000110101
10110010110
1110010000
1101001110
1110101110
1111110000011011
1111110010011001
1111110111110000
1111110110010001
1111110110001100
1111110010011010
1111111111011111
1111110101111101
1101101
10001010000
1111111101111001
1111110100001110
1111110011111011
1111111011110010
1011110101
10000100110
1111111100100110
10001001
1111101010110111
1111111000011010
1111101111110111
1111110110011000
1111111110111101
1111111011000111
11101010100
11011111101
10111101100
1010111000
1111110010011100
1111110011011110
1111110111001001
1111110011011111
1111110000110001
1111111000110000
111100000
1011111110
10000110011
100000000
1111111001101101
1111100111000001
1111101001100101
11101010
110011011
1100011
10100001100
10100100011
1111101110111010
1111110011000110
1111101001111101
1111101101111010
1111111101111111
1101000010
11000000001
1111000110
1110011011
11101111
1111110101011010
1111110000111101
1111101110011011
1111101011000011
1111101011101111
1111110010000000
10110010000
100111110
1011101010
100001011
1100000100
1111110111011000
1111111111001110
1111101100010111
1111111111110000
1111111110100100
1111111011000110
1111110011000111
1111100111000011
10001000010
11011101
10101111
1111111111000001
10110000111
11110010100
11001101001
10001001110
1000110010
11101111
1111111001010111
1111101100110000
1111101100110001
1111110110111111
1111110011010111
11000010
1110110
111111110
1111110000
10100111001
1111110100100101
1111110100100000
1111011111100001
1011111001
1111111110001010
1111101010100001
1111100101110110
10100011001
10001111010
1000011100
1111111101
11011111111
1011000101
101111111
1110001011
1111110111011101
1111111111011010
1111111001001100
1111111101001110
1111110011011000
10000
1111101101010010
1111101001001010
1111110011110000
1111011001
1000111111
1010110
1111110101101000
1111110110111011
1000001001
1110111010
10000011
1111111111000011
1111111101011100
1111101100110010
11001101
1011000100
100111111
1001000011
101111100
1001011110
101011101
111001011
1000001010
1101111000
111111110
1000011001
110010111
111000
1111111001001101
1111111000010011
1111110100110001
100001000
1111111111000101
1111111001110001
1111111111110100
1111110110000000
10110111
1110100000
1111111110011101
1111111111111111
1111111111100101
1110000001
101000111111
1111101100011110
111011010
110110
1111110101010110
10001111
100000011
11011011000
10011001100
1000000011
1110100100
111000
1000100100
1111111101010110
1111101101010000
1111111101010100
1111111010110111
1111110000011111
1111110110111011
110100101
1010110
1111110010101011
101010100
1110100100
1111111101011111
10011001
1100100
101000000
11100110010
111011111
1111111000000100
1000010111
1111111010010111
1111111000101100
1100111101
10001111000
10111011011
100001001
1111111110001011
1111111000101010
111111001
1111111001111111
1110110
1111110100110101
1111110000100000
1111101100101011
1111110111111100
1111111001111110
1011101001
1111111111011100
1111110100110010
1111110101001011
1111111111101110
1111111110101011
1111111101011011
1111101110100111
1111111010001011
101101111
11010100011
11110001011
1001010111
1111111100010011
10000110100
10000010110
10000110001
11110101010
1001110110
1100000000
101011000
1010001111
1111111101111110
1111110101110100
1111111110111001
1111101111110000
1111101010001010
101111011
1111111111010011
100001000011
1100101010
1111111000000110
1111101
10010100
101100
1111111110011010
101011010
1011011101
11000101110
1101011001
10100010001
1001101101
10011100001
11111010110
100110100001
11010011000
11001110111
100000010010
100100011001
100001111101
10011111001
10111111101
10000000011
1101011110
1111111101011001
1111111110100101
10110000100
1111110
1111111010101101
10000010
1111111101110001
110000
1101101
1111111111010000
1110110
1111111100100011
1111110111110010
11010011
1001010111
110001111
111
100010010001
1101010001
1011100
100011001001
100011011111
1111110100010101
1111111010000100
1011100010
10100010
1111111000010011
1111101010100100
1111100111100011
1111111011000101
1111001110
1111111111101011
1001100
1111111111100111
1001010
