1111111110010110
1101
0
1010111
1001010
100
1111111101011100
1111111111010111
1111111110111010
1101110
10011001
101100
1111110011001100
1111111011011110
1011001111
1000000
1111111111010111
1111111111100011
1111111110011011
10110
1110001
10101101
101101
1111111101011000
1111111110111010
1111111111011101
10001000
10101110
1111111110000000
0
1111111111101011
1111111110110111
1111111100001000
11100111
11110110
1001100111
100000111
1111101100000010
1111101100100000
1111110110011111
10000010
1111110001101011
1111101100001001
1111110001010111
1111111011110100
1111101011101100
1111101110000110
1101100010
101110001
1111111001110111
1100111
11101001
1101
1111111110001101
1111111110011111
1110100
1001000
10011100
1111111101100101
100111100
1111111110101000
1111110111001000
1111111011101010
10111011111
11000101011
1110011010
101011010
1000101100
1111111001100100
1111100110101010
1111101011000111
1111111011111111
100110100
1000110001
101000110100
10001101011
1100001001
1010100101
1111110101101110
111011011
10101010000
10001100011
1111111110110001
1000111
1110010
1111111101011110
111001
1111111110110101
1000001001
1000101111
10001110000
1001110011
1001100001
1001001000
111100111
1111111101101101
110101100
101011
1111111010110010
110000001
1111110001101100
1111110100101010
110111011
11100001
101100100
1100000010
111101111
10001000001
10001011001
1111111100110010
1111110100101010
1100000
1111111101011111
10100000
10101100111
1111111110100000
1111101101011110
1000000100
1111110111011110
1111110011000011
1111110011001101
1001001100
1111111111111000
100010101
110011110
101100110
1010011100
1111111001000011
1111111001101000
1111110101000010
1111110100100110
1111111011011100
1111110000111101
1111111100101011
1111110010111111
101000100
101010101
10101111100
10000101110
10011111011
1111111111001110
1111111110100110
11001111100
101110
10101100000
1111110100000101
1111011
1111110110000000
1111110001001110
1111110101011001
1111101101011101
1111110001111110
101011010
1111110010111000
100100011
10101001
10011100100
1011000101
1111111111111110
1111111101001110
1111110001011000
1111111011001100
1111101000111010
11100
110110100
1101100011
1111111000001110
1111110001101011
1111000
1111111111011111
110110110
10110000110
1110001
1111110110101011
1111110011011010
1111111101000010
1111111101101111
1111111111011011
1111001
1111111011110001
1000111
1111111011010001
1001100000
10100000110
10011001110
1111100010
100110110
1111111001101110
10011010100
110000110
1111111110110111
1111110101111101
10111011010
1111011100001110
1111101101000000
1111111110101110
1111111011001101
1111100001100100
1111001
110110011
1111111000110001
1111101101110101
1111110101100101
1111111010011001
1000000111
1111000
1111111101000101
1111111001010000
11011
10010000
1100011000
1110101100
10011101110
10010001
1000011
1111111010000010
1001000100
1111111101001010
1111110001011100
1111111000011010
1101111101
110000
1111101111010111
1111111011011100
10110011110
1111110110000110
100111111
10100011010
1111110101000101
1111110010111000
1111111100011100
1111110011101111
1111110111100000
1111101000010100
1111110011000001
1111110001011001
111101000
11000001010
1111111100100010
10011
10110011110
10010011101
1111110010111110
1111110111101010
1111111111110100
1111100100101100
1111111101101010
1111110000101001
110010001
10000001110
1111111111001001
1111111111010010
1111111100110101
1111100000111110
1110011001
11111011000
1111111110000111
1111111010111110
11000
1111110010110011
1111110001011010
1111101111010101
1111101100110010
1111101111011001
101000001
1011111000
101111010
110111001
10001011010
100001001
1111111011000100
1100101011
10101110
1010
1111111101100110
1111111101101001
1111110010000100
1111111110010101
1111101000011001
1111011110100101
1111111111011000
1111100010111101
1010001100
10101101011
1111111100110010
11110011
1111110011111111
1111111000100101
1111111101110100
1111101111101000
1111111001111110
1111111110111111
1001111101
10111011000
100100000001
1010010011
11111
1111111111011111
1111111100100101
1100000110
110111110
111100
1111111010010111
11110011110
10010100101
1111101011010011
1111101101011100
1111101101111100
1111101110110011
1111111001001010
1111100110111110
1111010000
1111111110010100
10011100
1111111001110011
1111110111101010
1111111100110001
1111110100110011
1111110001010011
111111101
1000010001
100101000110
101011010000
111101010
1111111101000100
1111110111100010
1111110101010111
11110010
1111111110001011
1111000001
1111111101010010
1010000110
10001000011
10101011000
111
1111100101111111
1111111010011000
1111101001011100
1111110000001111
111000011
1111101111111001
1111111000010101
1111110001010110
1001110
1111110110000000
1111110001010111
1111110111000110
1110001000
11111111011
101001000010
11000100111
111011010
1111111111000110
1000011111
1111111001000100
100111111
1111111101101111
110110001
1111101111000111
1111101110110110
10010101011
11111111111
11011110000
1111101011101011
10011010
1111110111000000
1111111000101100
1100001101
1111110011001000
1111111001100001
100100011
1111111100100111
1
1111110011010111
1111110111001111
10010010101
101101110011
100001110001
10100010110
1010110010
1111110111111000
1111110100011111
1111111011111010
1011010
1110001
1111111101001011
1111100001011100
1111110001001001
1111111110000101
10011001010
1000111011
11001101110
10001001000
1111110010011101
1111101101100011
100100100
1111101010010000
1111111101111001
1011011101
1001011
10000111
1111111001100100
110110010
10111001110
11110001010
10101110001
10010011111
101010100
1111110011100110
1111110110001110
1111110110110010
1111110110001011
1111110011100100
110000001
1111111110111110
1111110110101000
1111110110011111
10100011001
1001111111
10111111110
110000
1111101011000001
1111111100111010
1111110111011001
1111111100101101
11010100
1111110010000000
1111111011010101
1111111100110101
1111110111100100
1111111010101111
1010101111
10110010010
10000100000
10101110010
11010101
1111111000110110
1111110111010100
1111111010110000
110010
110111
11001101
110101001
1111111001100101
1111110111001100
110101001
1111110100001101
11100101000
1111110011101111
1111110110101100
10100001
1111111010000000
11010101
100010100
1111110111111101
1111111111011101
1111110000001111
1111110001101100
110100001
100111001
1011101111
10111010110
11100110101
1000001110
1000111
1111110100011010
1111111000101100
11100
1111111000100010
1111111011111011
1111111100010011
1111101011100011
1111101011110000
100101000
101010111
11010111111
1101111
1111110011000110
100101111
100101000
10101101011
1111111001110001
1111110110010111
1111110101110111
1111111100010110
1111111010011010
1111111010110001
1000001011
110000101
11011111000
11001000101
10001011101
11001011
1111101000111001
1111110011100010
1111110110001111
1111111001111110
1111111100001011
10001111
111110011
1111110100111010
1101011001
1111101111010000
101010000100
1111111101010011
1111111001100001
1111110100010010
110111110
1011000110
1110010
1111111001001010
1111111110100001
11000111
0
10011100
111000
10011111110
100000100100
10011000011
1111000111
1111110010000011
1111101001001001
1111110010000111
1111110010011100
1111111101110000
1111111101001010
1111111111110110
1101100
1000111
1010110110
1111111101000100
11101111100
1000101
1111101010110010
1111011110101101
1111100000011100
1111111001101101
10000001100
1111111101110111
1111111001001010
1111110011100000
1111110010010100
100111000
111111010
10001010011
100000111001
10110111111
101100100
1111101101100000
1111110000111110
1111101010011111
1111110001010011
1111110100101101
10111
1111111110011000
1111110001001001
1111111101001111
111111100
11101101110
10010111111
1111111111100011
1111110000001011
1111101010000100
1001011010
1111101101011111
1111111101000001
101000000
1111111101
11110110
11011010
1111111100001100
1010110001
1010110010
1111010010
101001111
1111111010000101
1111100011100101
1111101011110111
1111101010011101
1111101011001111
1111111000010001
110000101
100010011
1111111001111000
1111111101101110
1111110011111100
11001111101
1111111101011111
1111111101101010
10101001100
11011000011
100110001100
1111110101100000
100111
110100000
101001001
1111111010111011
10000001111
1101010001
1100101100
100110110
1000000010
1100001
1111110011110001
1111100100110100
1111110101000001
1111110001110011
1111110010100110
1111110000100101
1111111010101110
1100100
10100100101
1111111100100111
1111110101111110
1001110010
1111111011110001
1111111101101111
10001
11101011100
100011110010
10001110110
1110100000
10000010001
110011100
1000110101
11000100011
1100000010
1000010111
101001111
1111111101011011
1111101001100111
1111101101100111
1111011110101001
1111101111001101
1111101001110010
1111101110001001
1111110111011001
1111111011011100
100111111
101011101
1111110110100101
1111111100111110
1111110001111110
1111111110011001
1110101
11111
111011011
11111
100100010001
110101010
110110
1100101101
1101010101
11101011111
1100000111
111011100
10111011
1111111000100000
1111100101010100
1111101110110110
1111110010011111
1111101111011011
1111110001000111
1111110010110101
1111101
1111111001000001
1111111101101001
100000
1111111010101101
1111111010011010
1111111111001010
10010011
110010
10101001
1111111011101101
10101000100
100010010011
11000000011
11011111110
1111110101010000
1110110011
10110010
1111111011111010
101110010
1101010
1111110110111011
1111111000001110
1111110000011011
1111110100110101
1111110010011101
1111111101001010
1001101
101010011
1111110110010111
110010101
1111110100101010
10000010001
1010101011
1100110001
1111111101100100
101110
101000
1111111010101110
1111110011110111
1101111010
11111111001
100011010011
100110000111
1110011111
1011110
1111111100101011
1111111111001101
100011100000
11011101100
1010001010
1100000111
1110011100
1000110011
1111111111000100
1100111
1101101111
1001010101
1111111111010100
1011110100
101
1111111001100000
1101001101
10001010
1101011
1111111110111111
1111111101100101
1000110
10011011
11000010010
10001000010
10101011111
1011011011
1111101010010001
1111100110001100
1111100001101010
10011000010
10100110010
100111001
10001010
1010000110
1101001011
1111110011001000
1111110011100100
1111111101011111
1111011110101101
1111100111101001
1111100001110110
1111111000101111
1010000
10001100
1111111110111111
1111111101011111
1111111101100110
10010000
1111111101111000
1111111111000111
1111111011111111
1111101000101011
1111011001111001
1111010111100010
1110110010010000
1110100000111011
1110100011011011
1111000100010101
1111000001100101
1111001101011000
1111100000110010
1111011110000111
1111010011010000
1111110111011010
1111101000100000
1111111010001000
1111101111110101
1111100011101110
101101110
10010111
1111111111000001
1111111110010101
1001
