10100001
1111111111111001
1111000
1111111101011100
1111111110011111
1100100
10000100
110110
1111111101100000
1100111
1101011
1111111110101011
100011100
111011001
1111111110111011
1111111101010011
1111111111101101
111011
1000
10001
1111111110101111
10010101
1111111111010110
1010101
1111111111001010
100001
1111111111001110
10001111
10010000
1111111101110010
1111111101011001
1101010
11110001
11011010
100110011
1010000100
1001000110
1100111110
100011101101
1111111010000011
1111111010000110
111010001
1111011111011110
1111011101101110
1111100000101000
10001
101111000011
100111100100
100010101100
11101110001
10110010001
1000010100
1110000
1001110
10000010
10101101
11000
10000001
1110110001
1111111011101000
1111110001011111
1100011010
1111101110111001
1111000011
101110000010
10101111110
11000111110
1000011111
1011100101
1111111001000111
1111110000101101
1111110010000011
1111101011111000
1111110110101100
1111110001111100
1111110111111101
1111101110000000
10111011111
1111111011010010
1111111100010110
10100011110
1111111011001011
1110110
1111111111010001
10000
1111111110010110
110010110
1000100101
1111101111000100
1111111001100001
10001001
1111110100001100
1111111111011001
1101000011
1111111110011010
10010010010
1100000101
1111111100010000
1111111011010100
1111111011101110
1111111101100101
1111110011111011
1111011100001010
1111101100001101
1111101001110100
1111111000001101
1111110011101011
1111110011010010
1111111001111010
1000000001
1110001111
1111111101100111
1001100
1100010101
1010001
1000111101
101000
111010100
10111100
1000111000
1011101
101000111
1111111101110110
1111110111110101
100011100
11110010
100010
1111111100101010
1100100
1110111
1111110111111100
10011001
1110100100
11110000
1111111000111001
1111110001110011
1111110110101000
10110010
1111101101110101
1101001001
1111111110001011
1110010
11010011111
1111111001001011
1111111010011111
1111110110010000
1100001010
1111111100100110
1111111010101001
1111110100111111
100111101
1111111010010111
1111110110110100
1111111001011011
1111111001101111
1111111000010010
1111111110101001
10010111
1111111011101001
1111111100111011
100101
10100101
1111111101110000
1111111110010110
1111101111101110
1111101111100110
1111111000111000
101000011
10000000
1001001
10111100100
111110101
101000110
1011110000
1010011111
1111110100101011
1111101111100110
1111111110101100
1111110111000001
1111111100101010
1111110101110101
1111101100000101
1111101010001011
1111101010110010
1111101110000000
1111110101100000
1111110111110010
1111111101111011
1111111011010111
1111111001110001
1111111101100101
1100001001
1010000011
10011011
1111110100110011
100100110
1
1111101110100011
1000111100
1111110101011011
100001000
1111110000110111
101100
1111110010100110
1111111100001110
1111101111000110
1111101110110111
1111111100100000
1111110111011110
1111110111001101
1111110100011110
1111110001101111
1111101101100111
1111110110111000
1111110101000101
1111111010110000
1111111111101110
1111111000010011
1111000
100010111
10000111101
1111111110011100
1110100101
1111111110100101
10000110001
11000001
1111111000111110
1111111101011100
1111110100011101
1111111010110011
1111111110000101
1111110110100100
1111110110001111
101101
1111111100110010
1111111000101100
1111110001101110
1111111010110000
1111110001111001
1111110101101101
1111101110101111
1111111100101000
1111110101000110
1111111001011101
1111110010100101
1111110111100010
1111111000110011
1111111000010010
1111111101001001
1111111011101011
10010001010
1111011101110100
1111111110000011
1111101101101110
1010011110
100010010110
1100011100
1111110000010101
1111100110000101
1111111101011001
1111110100110011
1111111100011101
1111101101101001
1111101011101110
1111101111000111
1111110101100100
1000111
1111101010100101
1111110000111000
1111111101010111
1111111010010001
1100100
1010000101
1001011
1111101111001110
10100001
1111111110110011
1111111000000011
1111110011001010
1111110001100001
1111111011010000
1111111001010101
1111110100111010
10111010100
10010000100
111101001
1111101111000110
1111111100000011
1111110111010101
1111111010011010
1111111010100001
1111110110101111
1111110011010111
1111110111101110
1111110001100100
1111101110101000
1111111011011111
10100111000
110111010
1111111101011111
1000110110
1111111100101001
1000011101
1111111011111001
11010
1111111000101011
1111110010111000
1110101101
1111111111111010
11000111
1111100110011100
1001110
1111101011000110
1111110011100110
1111110001101000
1111110010010111
1111111100110010
1000000101
111011100
1111111100101000
1111000
1111111000110110
1111100101101000
1111011110111001
1111111010000110
1111111
1111110101001010
1111111001111000
1111111010011100
1111111110110011
1111110010101000
1111101
1111101100100001
1111111000111000
1111100111011100
1111101001011001
100100
1111111011110100
1111110001111000
1111101111101110
1111111010101000
1111110010101111
1111111001100001
110111001
100111101
100100100
110111001
1001011101
1001111010
1111101010010001
1111011010110100
1111011101011011
1111110100100111
1111111111101011
1111111010001100
1111101111001111
101111010
11010111
10100
1111110011001111
110110011
111000000
1111100110111010
1111100110110001
10011
1000110111
1111110000100111
1111110000100110
1111110101101011
1111111111111000
1010011110
1110100000
1001100011
10100010
1000111010
10010101101
1111111000101100
1111100100011100
1111011110110101
1111101010111001
1111110100100100
1101111
1111111110100110
1111111100110100
101110111
11001000
111011111
1010101011
1010111110
1111101010111000
100011100
10101010010
1111110111010000
1010111111
1111101101000001
1000101001
1100101110
1011101110
10111110
11010011000
10010010001
1111000110
10101100011
1011011100
11011011
1111110011001101
1111110010101001
1111110101110001
11000110
10011010
1111111100001111
110001100
1000001111
1111111011101000
1011000111
10001101
10010011111
1101101010
11000101110
10110100111
1111111001000011
11010110
1111111110001100
11110100010
1001001000
10101
100101100
1101000000
1010111001
1111101100
10100111010
10011010011
1000101110
1000111101
1100101
1111111110100000
1111011110
1010001110
1111110001110101
1111111110010110
1111111011100100
10110010
10101100101
110000000
11010
1111111110110000
10011101100
11001101000
1111111101001111
1111111111010101
1101010011
1111111110011010
100011011
110110
1001011010
10101000000
1110101010
1000111010
1001111110
10011100110
1000101010
1111111111000001
100101101
10011110000
11000111100
10010011110
1001011110
1100001
11011101
11111010
1101011110
1011100011
10000110000
10011001001
110000001010
1111111010111010
1000011
11111101
111001111
1111111010001010
1111111101001001
1001100111
1000111010
10001000111
1001111110
1111111011111101
1011111
1111111100110010
1111110111001110
11111101
1010100
1001
10001010010
10000111111
10010011011
1111110111011001
111001001
1010110111
1001100101
100011111
1111110010101100
1110100110
111011100
1111110011000101
1111101011101101
100010110
1111110001111000
1101011001
1101111010
101111011
1110100001
11000001101
10010111010
100110001
1111111010111000
1111110111111010
101001011
100100001
110111
1111111110000110
1100001000
110001100
111111011
1011101010
1110001011
10010110000
1101100001
111101
1111111111101011
1000000110
10011011
1110101101
1111111101000101
1111101000101100
1111110000001001
10011001001
1110010100
1111111111101001
111000100
10011001011
1111011011
101101011
110100010
11101
11100011
1010110
100110110
1101011111
100101100
1001001100
111110110
10001110001
101011011
111011
1110001111
111101000
1111110111111011
1111111000111000
110111100110
1000011110
10011011
1111111010111110
10111100100
1000110110
1111111110110100
100011011
1111111001001011
100111101
1000110111
10110001
100100000
1111111110100010
10100010
1111101100010101
1111110010101100
11001100
101101111
100011000
10001011011
10100111001
111111000
110010100
1000100
10001001111
1111111101110011
1111111100101100
110000001111
1111110001001000
1111111101111000
10001001100
1000011010
10100011100
1100010100
10010100111
100110100
10111111
1000000010
1111111111111011
1111110111001010
1111110101100011
1111111001110010
1111110010001011
1111101011011000
1111111111010110
1111111101000011
1111110110111010
1111111100000000
1111111110111000
1110101
111000110
1111001000
10010110101
1111100100011011
1111101011100010
1111110011000110
100000
1010000
1111111110100001
1110010001
10001000011
1110010011
1111111010110000
100010111
11100111
1111111101001001
1111111010101111
1111111111110001
1100010
1111110100100111
1111110010001010
1111100111111010
1111011
1111110011101011
1111101011011110
1111110110011111
1010100001
1111110010001010
10110100
1011001010
1111111001100010
1111101111110110
1111111010100111
1111110011110110
1111111111111011
10101101
100001
1001000100
111101
1111111011010100
1111101011000100
1111101011100111
1111111011101111
1111111111001101
101010011
1111111011010101
111010001
1111101101110011
1111100010001110
1111101110100010
1111111010100101
1111101000000000
1111101110000010
10001101
11111110
1111101111101111
1110
11001111
1111100000101010
1111110110000111
1111110100011110
1111111001100001
10101
101101
1101100
1111110101101001
1111111011111001
1111101111111001
1111110011001010
1111111010011101
100000111
1111111100100101
1111100111110010
1111100101000110
1111101100100110
1111011110101011
1111011001100010
1111011011101010
1111101100111110
1111101001011100
1111011111111101
1111100110011101
1111101001111111
1111101110011001
1111110111000001
1111101110011111
1111101010110011
1111101010010011
100001010
1111110100
1000001
1111111110100100
1111111110110000
10101101110
1111110110110000
1011000
1111100011100100
1011000001
110110101
1111110010011100
1111010101111000
1111100101001000
1111111111001100
1111011011010000
1111100101100001
1111110001111101
1011011
1111111010010001
1111010100110001
1111001010010101
1111001001010011
1111011101001101
1111101101100001
111010
1111110101010100
1111011110011010
100011100
10010000111
110011
1000101
1111111110101001
1111111111011010
1111110011100010
11100
1111101011110001
10010000110
1010101010
1010000100
1111110010000001
1111001001101010
1111100010010100
1111110000010111
1111101011111011
1111010111001110
1111011111000011
1111011100110001
1111101000111111
1111011110101110
1111100100000110
1111100010010011
1111100011101110
1111110101100001
100100110
10000111111
1111111110111100
1111001
1111010
110111
1111111111011111
1000110
1111111101100110
1011100
1111111011000100
1111111011101001
1111110111100010
1111110110111010
100101010
1111100111110010
1111110010011001
1011111000
1111100111000101
1111011110110111
1000100011
10100001001
1111110001000101
1111110011000011
1100100001
11111011100
1101001010
1111101110010001
1111110000000011
1111111111001011
110011
1111111101011101
1111111101011010
