1111111110101110
1111111101101010
10100001
1111111110001010
1111111110111111
1111111101011001
1111111101101111
1111111111001110
10101010
10101010
1111111101100111
1000100
10010
101111
1111111111100110
1011
101010
1111111101101011
1111111110111101
10101
1101011
1111111111100110
1111111111111110
110100
1111111110001001
1111100
11
1111111110000100
10000011
1111111110001100
1111111111010001
1011
1000100
101100111
1011101001
10001101010
11000110011
100110011111
11010101000
101010100000
101101011010
101000101011
1111110010101000
101110001100
110011111000
101100011110
10110101010
10000000110
1001100000
10101001
1110001010
1101001100
1001100
10011011
1111111101100000
1000100
10000111
1111111111011101
1111111110001110
10011000000
10000110000
11011101
10000001101
101001111100
110111110000
111011001111
100000010100
110110110011
1000011010110
100000001000
100111011000
10101001101
11011011
1111111110101001
11011101100
11000001001
110011001
110110110
1111111111011110
11001100111
1000011000
100000001
1111111110111000
1111111111100011
11100
10011
1111111110001101
11000011111
10111001010
11110011001
10100010011
1111101011
10010011101
100010001000
101010100100
110000010101
1001100001111
1011100100111
110000011001
111110110
1111111100100111
1111110101110110
100111110
1111111000101101
1111110011011000
1111101110110110
1111110011010011
1111100011010111
1111111010000111
1111111110000101
1111111011010010
1111111101010011
1111011
1111111101001010
1001101111
1111111110001101
1111111001111001
1111011011
10110111010
1000110111
1111110100110111
100010111101
1000001000011
110001110100
110101000100
101001100011
101111000110
10101010110
11010000011
1000010010001
101001101101
100010100
1111111000101011
1111100111000011
1111101111001011
1111111000010101
1111101100110101
1111110100100111
1010101101
10001101101
1111101
10010111
11011110001
1111111111111110
1111111110000010
1111100000110001
1111101111100100
1111101010100010
1111100010000010
1111101000010111
100100011
10001000011
1111110101001011
1111111110010111
1111111101110101
1010010011
1110000111
1111111110010001
100110011010
11001000011
1000111111
11011110111
11100101101
11001111010
11010011
1111001101
1111111010100101
1111101001011010
1111111111001101
1111111111101110
100000010
1100111
1110110101
111011000
1111111010000101
1111111000100111
111101110
1111110110101101
1111101011110011
1111111011010101
1111111000001110
1111111100111101
1110101
1111111111110110
101010000
1111111111110110
11110000
1111110111111110
1111110110110010
1111111110101011
11011101
1111111101100111
100111101001
11001100010
1111101010101000
1111101111100100
1111111000011110
1111100011010011
1111110101011011
1111101000010100
100110100
111011011
10110100
1111111111001000
1111111001111111
1111110000110110
1111110000110011
1111111100101101
1111110011001001
1111111101101010
1101010111
101101010
1111110101010011
1111101001101110
1111110111110100
1111110010111110
1111101111010101
1111110100100011
1111110101001110
1111110000100100
1100011101
11100100100
1011111
10011111111
11000110011
1111101100111010
1111101101101110
1111110010010110
11100010110
1111111100000100
100011011
1111110101011001
1111101100100101
1111110001101011
1111111010010110
1111111000111011
1111111001011001
101001011
1111110111111101
1111111010000010
1111101111001011
1111101100100110
1111110101001101
11011000
1111100011111101
1111110100000010
1111111001110000
1111111110000110
111100010
1111111100001111
1111110
1111101010
1111110110000101
1111101110010001
1100110100
110110
10010001011
1111111111111101
1111110001000011
1111110011110101
1111101111100100
1111110010110010
1111111101010000
1111111011010100
101111001
11011011
1111111110011010
101001010
1111111001100110
1111100110011000
1111110000010011
1111110111111111
1111101101001111
1111111101000101
1111101110001000
1010101
101010010
1001010011
10111111000
1111100111011001
1111110011110101
1111110010001101
1001010101
1011101000
1010011100
1000011101
1101100
1111111000100000
1111111111110111
1111111001000010
1001101
1111111011001001
1010001101
1111111111011011
11101100100
1101100101
1111101110100010
1111101000100111
1111101110010110
1111110100111010
1111111011001100
1111111101011000
1011010110
10111011111
100011101101
1111001011
11111000101
1111111001001101
1111101000011111
11110000110
1111100101001011
10011110110
100100011
10100010001
1111111110000111
1111110111101111
10100011
1111111101000000
1111111010000111
1111111111111111
11110011100
101010111001
100110100111
10011111110
1111111001100111
1111111001101011
1111111011010101
1111111110000100
1111101111001100
110111000
111110101
10000111
100011100100
1100101100
1111110010101110
1111111001001010
1111101010000101
1111101101011010
1111110000010010
1111111101001010
11011111011
10001011001
1111110011101110
1111110010100101
10011100
1111111111100101
1111111101110111
1110111011
100100111010
1011000000110
110110101001
100010100
1111110000000100
101010100
1111101010100101
1111110011101110
1111110110111111
1111111011101001
1111111101010001
11101
100000101100
10011101000
1111111001110100
1111101110110110
1001000100
1011011101
1111101111011100
1111111000100111
1010101011
10010010
1111111010000000
1111101011100110
1111110010000100
1111110100101100
1111111011001100
10101001100
1100000100010
1011100101101
10101011000
1111111010000101
1111110110011010
11010
1111110111011101
11011111
1010101001
1111111011001100
1011100011
110000000010
100101110000
111101100
1111110110100100
110001011
1100100010
1111110000000101
1111111000001110
1111110101101100
111011
11010
1111111000111000
1111110010100110
100110110
1111111100111100
1101000011
101100111100
1000101101000
10110001010
1111110111111110
1111111000011111
1111111010000011
1011
1111111110011000
1111111011000000
101011100
10110000000
100101000101
101011010000
110100011101
10101010000
11101111
11100010
10001111
1111111111010010
10100000010
1111111100101010
1111110100110100
1111111011010001
1111011011011001
1111110010100010
1010110000
10111101010
100010001010
110101011000
101111010010
11100010111
100010011
1111111001000110
1101100000
1111111111010010
111111111
10001001101
1111111010110100
1110011011
10010011010
110011010100
110011011001
1111111100
1111110101101010
101101010
1111101110111010
1000011
11111000011
10110101000
10001100111
1001100100
1111101011101100
1111101111110110
1111110110101110
1111111110111100
10111010100
100000111001
1001101110
110110110
101001101
1000100010
1100000
1111110101001001
1111111000000100
10000
1111111011111100
1111111111110010
1100010011
10101111000
100010001100
10001010100
100100011110
11010000001
1111111111111000
1111110001100000
1111111101000111
100111111000
10110111001
10111100101
101101010
1111111101110110
1111101000100011
1111110010100111
1111111110001101
11110110
1111111110011001
10010001
1111111110010010
100010100
1111111010101000
1111110011011000
1111100010110011
1111110111110110
1111111001101001
111101111
1111110111110110
1111111000010101
1001
1111111001010110
1111111000101100
100010111100
1111110010000101
1111110100101010
1111101100011111
11110000010
11011111101
11001100001
1111100100
110111011
1111111100011101
1111111110010101
1111111111001101
1110000
10001001001
1010001001
11011110
101111101
1111111010001111
1111110001011110
1111101001011011
1111101111001101
1111110100111100
1111111111110100
110101011
1100011101
101100
1001011001
1111111010101011
10011100111
10010111
1111100101011000
1111011110000110
10101100001
1111110110000100
10100110011
1000101110
10000100110
1111111110101000
1111111001111101
1111110110110111
1111111100001000
101101100
11111110
1000110110
10000001000
1101000001
1111111110001011
1111111010100101
1111101110010111
100011000
1010101010
111101000
1100000010
1111111010001011
1111111101001101
110110001101
1111111011101100
11000
1111111011010010
1111101100111101
1000111111
101101011
10110110100
11000001100
1010100001
11100001
1111111110110100
1111111011110001
101010101
10000010
100010100
10000010001
10111100110
10111111001
10010100010
10101111001
1111111101110011
10010101100
1111001111
1000111101
111111011
11010100
101001011
101011101110
10101010
100010100
1001011001
11111111011
10111100
10000111001
1011100
1110011
1111111110010111
11001101101
10011010010
1100111110
10010000011
110000111
1111001000
1011111011
11110011010
1111111010
101001011001
11100101000
11100110
101111101
1111100111110101
1011101110
100001111100
1111111110110100
1111111011101101
100000000001
1111111110111000
11101010
10000111
101000110101
1011110011
1111101100010010
1111110101011111
1111101111000011
111111
1111001011
100110
1111111011101111
111111001
100000000
1101010111
1001101110
1111100110
1101111100
100011100001
11100010100
1111111000001001
1111110101011000
1111111111010000
1111111111101011
10100111100
1111111011000101
1111111010001100
110110000
10101
1111111111100111
1111111111011010
100111100010
11101111001
1111111100001010
1111111000010000
1111110100011010
110111011
1010100011
1111111101110001
111110000
110011101
10101010001
11100000101
10111111011
10011001110
100101011000
101110111101
100011111101
1111010000
10100000
1111111111101010
1111111011111110
100011101
1111101110001100
1111111100111011
1111111110001011
1111111111000101
1111111101011101
1111111111001111
1111110100010100
10101110100
1111111010101101
1111110000101100
1111111000110100
100010101
111001010
11100110
10101101
1111111100110101
1100010010
10100101100
10110111010
1111001010
11001001001
11011000100
101010100000
1100111000
1010011
1111111001001111
10011010110
1111101111101100
1000000000
10100001011
1010001101
10100111
10100101
100
10111100110
1111100101011001
1111100100111000
11110010
10011010001
1110000101
1011011000
1111110010011101
101111101
1111110100111100
1111110010010010
111001100
1100101111
10000100101
111010011
100001000001
10011001110
1111111110011010
11100010
1001010
1100101100
10100000101
1111111010001110
1111111010100000
1011101101
10000
10011100
1111111111001110
1111111111001110
1111110010010000
1111110110110101
1111110011001010
1111111100100111
1111110101011101
1111110111110011
1111111010110101
11010111100
11101000101
11011000000
111101000
110110100
1011111101
1000100000
1111010001
1111101010100011
1111100000001111
1111100011100111
1111110010100111
1111100110001001
1111100101111000
1000010100
1111110101110011
1111111110111101
1111111101101100
1111111101010100
1111111111000001
1111111111110010
1111010
1111101000110111
1111010010011001
1111101100000011
1111001101111110
1111101001010101
1111110101111011
1111101001000011
1111111001100011
1111101111110010
1110110101001101
1110110010011011
1111111011111100
1111010001110011
1111100001000011
1100110
1111110111101110
10000111100
1001111000
1111101001001010
1111101001000100
1100011
1100110
1101000
1111111111000010
