10000100
1111111101101110
10000000
1111111111101101
1111111111001011
101110
10011101
10010001
10011100
1111111110100111
10000
10000011
111100110
1000011110
1111111101000100
1111111
10010110
1111111111000000
100001
10101001
1
1111111101110111
1111111110111010
1101
1111111111100000
1111111110110000
1001010
100001
1011100
100
1111111111000000
1111111110011111
1010011000
1011101000
111100100
10001010001
1111111100011011
1010111111
11100001000
11111111010
100000000101
101000011100
1111110001110101
10011
1111111110011110
11011110001
11111100101
100100001110
100110011110
101010001100
100111011101
10001100101
1111111111011011
1010011
1111111110010001
1111111111100111
101111
1111111111010111
10010101101
10001010101
100010011110
10000100010
10110011111
11111111011
1111111111101111
1111101100010110
1111101011000011
1001110001
1111110011100101
1111100010011001
1111100111110100
1111111111100010
10010001110
11010010010
100000001001
101000000101
11010011110
10011111010
101111011011
11101001
1111110001101001
1111110001101101
1010010
1111111101010100
1111111101110001
1110000
1001011
11001000111
11000111111
11111011110
11111001110
100100010100
1111111111110011
1111011111110110
1111100011000000
10100011
1111101000101101
1111010011110001
1111110111011011
1111110110001011
101110
111111010
1110101001
11110101101
11011111011
11010011111
11011110110
100111100100
1011001001
1111111100001100
1111111001011110
1111111111100001
1111111101011101
1111111101001110
1111101111111110
1001001011
1111111111010101
11010101100
1111111011000011
1111011110111101
1111010100100001
1111011100010111
1111000110000010
1111100010011010
1111101101000000
1111110000100010
1111110011011010
1111101110101110
1111110000001010
10000
1000011001
11100011
1111110011111001
100100101
1111111101010011
11000110110
1111110000
110110111
1111111011111000
1000101
1111111110010010
1111111111000111
10101000111
1100000100
10001110100
1111111000
1111101101110100
1111110011000101
101101001
1111101110110111
1111100001100111
1111111100011011
10100111
1001000
100110110
1111110100111110
1111110010001010
1010000111
1111111100100110
1111111010111110
1111111110110011
1111110011001100
1111111101110010
1111111010111100
10110010010
110011010
10110001101
110100101
1111111110010110
1111111000111110
1111111000110100
1111101001011110
10010100111
1110010111
1111100101100010
1111101001000110
1111101110000111
1111101010011011
1111101000110110
1000010
11000011
11110001
1000100000
10111001
1111110101110111
1001001
1111111001000011
1111111110100110
1011111111
1100011010
110000100
11110001
11101011
110010010
1111110011010000
11001111111
1111111111110010
1111100011011101
1111110111111110
1111111101101101
1101100010
110010000
1111101110100001
1111100101111101
1111100000011100
1111110010111001
101000010
1111111110001111
100001100
1101110011
10110
101110
1111110100000101
11010
1111110110000111
1111111000010000
110010
110010101
10001111010
1000000000
1101100
10110000011
11111
11110010111
11011110100
1111011100011010
1111101001010110
1111110001000111
1101000
1111110110011010
100001000
11110011
1111101101110101
1111101100000001
1111110111101101
1110100000
10100000101
10110100001
110001011
1111110110000110
1111111000111011
1111110110111101
1111111100001010
1010
1000
1000110000
10001111100
101110010
111001101
1101101110
101100100
11011010010
1111111011000011
1111100111011100
1111111101001011
1111101010110010
1111101100100110
1111110101001100
1111110100101000
1111100010011110
1111100001011011
1111100000011011
1110110
10100000011
10011101111
11010011010
10111100
1111101001001100
1111110011110001
1111101101110111
1111111100010010
1010100110
1111111011101011
1000101000
1000010
101111100
101001111010
10100010001
1111110110001111
100000001
1111111000010111
1111100101110010
1111110001001010
1111111011101110
1111010000
1111111110101000
1111100110100100
1111100101010011
1111101110001010
1111100111110000
1111111001010011
1101001110
11011000101
10101100110
1111001000
1111111011111110
1111101001000010
1111100101101110
1111101110111011
1111101001110100
1111101100000001
1101010
110010001
11011010001
100111100001
111111001
111000001
100111111
1111111011000001
1111110101110000
1111101000000110
1111001110001011
1111100000111101
1111101011000011
1100010000
110011
1111101111100111
1111110110011000
1111111010101100
1111111110001010
10001100000
10100111000
1001010010
1111110000101010
1111101111111110
1111101011001001
1111101110010110
1111100101000011
1111100010110001
1111111110001100
1001111000
10011110000
11100100101
1111111010101100
1000001011
1101001
110000
1001100001
1111100111010011
1111101101001011
1111100001011000
1111111110011101
1001110111
110111
1111101001011111
1111100011010011
1111111001001101
1010111011
110101000
10000001010
1010011000
1111111100100010
1111111101100011
1101001
1111110011001011
1111101000011101
1111111001111011
1111111101101111
1111111101101000
1001001001
1111111000010100
1111100100111110
1111101011111100
1111110110101101
1100000110
10000100010
1111100101110011
1111100101110111
1111111000100110
1111101000110010
1111101101000101
110110110
1111110001101100
1111101111011000
1111001
110000010
10100111111
10010001000
1100010110
1110111101
1100110100
1111111111010100
1111110110010100
1111101011011101
1111101000001010
1111101010111001
1111111000011010
1111111101000001
1111101001011101
1111110110001001
1111010001101010
1111111011111111
1100100011
111110010
1111100101100110
1111101111010111
1111100100000011
1111111111010000
1111110100101001
10010011
1111111010101001
1111111010011000
10111011
11111100
1110000011
11010110111
101010111
101110111
111010011
1111111010100001
1111101010011011
1111110001111100
1111110111001100
100110000
1111110100000010
1111110111101000
1111101001110101
1111110011111100
1111010110100001
1111101110110100
1101011001
1111111011011001
1111110100001101
11011110
1010100000
1111110010111011
1111111111100010
1111111110011111
1111111110101000
1111110100110110
1111111000101001
10101010
10010101010
11101001
101000000
11100001
1111111101000100
1111110110001110
1111110000010111
1111110000001100
1111111111010111
1101101111
110100111
1111111110111110
1111101100000111
1111100100001111
1111001101000110
1111111111010011
101111110
1111110000111001
1111100000011110
1001011101
1111111100001001
110001
1011000011
1111110001001001
1111110110000011
1111101010000110
1111110010010011
11010100
1000011000
10010
1111111100101100
1000100
1111101111101000
1111110000110010
1111111000110101
1111111101000011
1111111111011111
1111111101001101
101000011
1111111110001010
1111100110000100
1111010111111111
1110111110101111
1110011101
1111111110110001
1111110111100110
1111101110110110
1001100111
1111111001100100
1001110
1111111010011010
1111111000111101
1111111000000011
1111111110100101
10000011001
111000110
1010010
1111111001100101
1010101100
110000010
10001010
1111111001101000
10000011
1111111011100110
111011100
1111110111100110
1111110110000100
1111111000010100
1111111001010110
1111100111100111
1111110001011100
10010010000
101110001
1111110010110101
1111101111100001
1111110100110101
11111110
10101
1111111110000011
10001000
1111111111011111
1110100110
111111011
1100011111
11001101
1111110111010110
101110
11111010
100000111
1111111111000111
1111101101011011
1111110111100110
10101000
1000110011
1111100111011110
1111100100100111
1111101011000111
1111110010011011
10001110000
1111011111110000
100100101
1111111011010000
1111110111100001
1111110101111010
1111110011101100
10011111
1111111011001101
1111110110101111
111111101
1111111100000101
1111110111111100
111101101
1011110111
1111110011100001
1001011
10111001
111111110
1111111001101011
1111110110010011
1111110100011111
1001011100
1111110110010000
1111111011001111
1111100000011000
11111010
1111111101110100
111100011
1111110010110111
11100
10110110000
110000000
1111110001001101
1111100001111110
1111111010010110
1111110100011101
1111111101101101
11100010
1111111110001001
101000101
1111111000111001
1111111011011111
1111111110000111
1111110111111101
1111111111100100
1111111010000111
1111111100100010
1111111000001000
10100
1111111111001010
1001100
1111101110100111
1111111010011111
10000110000
111100011
1001000110
1010101
11101110
1111100110001101
1111011111000100
100110010
1111110110110010
1111111100100101
1111111111101100
1111111000000110
1111110110011010
1111111100111011
10000001
1001111101
110000100
100001101
1111110011110111
1111111000011001
1111111000110100
11000001
1111110011100110
1111110000110000
1111110100101101
1111101001100101
1111100100001101
1101001101
1111110001111000
101111000
10101101011
101010
111110101
101010100
1111010110101101
1111111110100110
1111110010000110
101101
1001101
1111110110111001
1111111001110011
1111111011001010
11011000
1111111011101100
100111110
1010111110
111100001
100111001
101101011
1111111000011101
1111101111110001
1111101001100100
1111110100110010
1111100111110101
1111011101111000
10000010000
11001011010
11001011010
111101011
10010010
1111100
1000101
1111111000010000
1111111100100101
1111110001011110
1111101001110100
1111111110111000
1111111111011010
11001
1111111001111010
100011100
110011
101010011
110101
10100100
1111111101000111
11010011
1111110111110111
1111101001101011
1111111010001011
1111111101110011
1111111100011011
1111100110000010
110001001010
11000110100
110010000
1111100111101101
1111111111100100
1111111101111000
1111111111110010
1111100111111000
1111010101011110
1001001
1111111100000101
1111100111011101
1111110111100110
1111110110110001
1111111111110100
1100010
1111111100001000
1110
1001011111
1110011001
10111110111
100010100
1111100110110100
1111101100001110
110100110
1111111110001111
1111110110100011
1111101100001000
11110101110
111011100
1111110001001011
1111101100010010
10011011
1111111110011000
1111111101110100
111100001
1011000101
1111011110011010
1111011111101101
1111101000111010
1111110000001101
1111110000011111
1111100111101001
1111110011010101
1101100001
11001000
1111110010110011
1111101110010111
1111101001010101
1111111110111010
10001001011
1100111001
10100000110
10101101111
1111110101101010
1001110010
11011111100
110011001
1111110101011011
1111110111001110
111011
1111111101011000
1111111111110110
110101
1111101111100001
100101000110
1111110100111010
1111111101100010
1111101110111001
1111101100111110
1111110111001000
1111110000001101
1111100000
100000000
1111100100011111
1111110010010111
1111110110000011
1000001110
10001010001
1111111011011001
1111111001010100
1100011110
111010100
1111111000100101
1111100010001001
11001111
1010001000
1111111101101001
10001110
1111111110001100
1111111110010110
1111010
1111111111101111
101101011
110101110
10101011010
1001001001
111100000
1110000
1111111110100011
10001010010
10001110000
10010111
1111111000101010
1100111101
1011101001
100001101
11011110
1110100100
101010111
1111110111010011
1111101100001001
1111110111111010
1010010
1001
101000
110110
