1111111101110100
1111111101011100
1111111101011010
1010111
1111111110000001
1111111111111001
1111111111100111
10010000
1110001
1111111101011010
10011110
1100
1111111110110001
1111111000011101
1111111111001010
1010111
1111100
1111111111011110
110110
1100001
1110100
1111001
1111111101101000
1101111
1111111110100010
1111111110001000
1111111101111010
1111111110111010
1111111110011001
1111111110000011
1101101
1111111111100100
1111111100111010
1111111001111001
1111100001110010
1111100010011100
1111110101111011
1111011011011110
1111001010110001
1111011100101111
1111010010111100
1111010001110100
101111111
1111110000100010
1111101001110000
1111100010111000
1111011110111011
1111100110110100
1111100111100100
1111110010001001
1111110111110011
1111111010001101
1101011
100101
1111001
1111111101110001
1101000
1111111111010011
111
1111101011101001
1111101010110111
1111101110110111
1111101110111000
1111101000010111
1111100100100111
1111111000111011
10000
1111111001000000
1111101101011010
1111110110011100
1001010101
1111110010101011
1111101001111000
1111010000111110
1111001101010000
1110111010101010
1111100010000010
1111111101110111
1110100
1111111000010001
1111111011011001
10000000
10100100
1111111111001000
101001
10110
10101011110
1111111110001001
1111100110011111
11100001
10111000010
100010110011
111001110
1001110010
1010100010
101110001
101010111
1111111011110001
1111110110100110
10000110110
101111100
1111110110100010
1111101110011110
1111011011010110
1111011001001000
1111001111100000
1111110000101110
1111100111001000
1111100101011000
1111101011000101
110000000
1111111101110011
1111111101100000
111101
10100000010
1111111101111111
1011101
1111110101111011
10111001
10010111111
10101001010
1111111111101100
1111111010011110
11110111
11101110
1110101001
1111111111
10101001101
1100100100
1111111011000101
1111111000001001
1111110001011001
1111100000101101
1111101010110001
1111110010000001
1111100001001000
1111100010101111
1111110111101001
1111101100101110
1111111000100001
1111111111001001
1111111111101011
1000111010
1000110
1101001101
10011100000
1111111101000011
10010011101
1011010110
1000110
1111110000001110
1111110101111010
110001011
111000010
110111
11111100
1111111101000111
1111110001011000
1111111010001010
1111111101010100
1111101101100111
1111100011101111
1111101010001000
1111100001110101
1111000111110001
1111101001001000
1111100110100100
10000
1011001
1111111011001010
1111100110000011
11101011001
10011101
1001100110
10110100
10001110
1111111101000010
1111111001111100
1111111011101111
1111111001000000
1111111111111100
110000010
1111111111110010
1111111110000100
1111111001001100
1111111001111101
10011101
1111111101110111
1111110111011100
1111111110001111
110100
1111100101010010
1111110001001110
110101101
1111011001001011
1111100001100011
1111111100101111
1110010000
1111101010100000
11011110010
1111000100
1110101011
1010100100
100101011
1111111010011010
1111110110010101
1111110011010101
1111111100011101
1111011011
100101010
11101001
111001110
1100011001
1110100100
1000001011
11001111
1000101000
1100000010
1111110111010001
1111111000011110
1111110011101110
100100111
1111111001010010
1111101101111101
1111100100100111
11010111000
1111110101011001
1111110010111011
1111111111001110
1111111001100111
1111111100010100
1111111000110101
111
11010
111100000
1111111111001110
1111111011000010
101001
10111001
1011110101
1001001101
10110010
10001110
1111111101101000
1111111010111110
1111110111001001
1111111101101010
1111101000011011
1111110111100101
1111111000101110
1111110010111011
1111101001101101
10111111
1111111110100000
1111011111101000
1111110010100101
10000000001
1010010000
1100000010
1010011001
11100101
1111111011110001
1111111011011000
1111111010011110
1111111110111100
10011110
1110000111
11000001101
1111100100
111010100
1111111010001101
1111111000110101
1111111001100101
1111101110101100
10100101
10110100
1111111010001011
1111110100001100
1111110
1101101011
1010010
1010
1111111110111100
1111110010010110
1111111010101011
101111000
11110011
1111111110111110
1111111010010011
1111111000100110
1111111001101001
1111111100001011
100010
11100010110
10100111110
10010010111
1001110111
10101001
1111101110010001
1111110111101011
1111111011001111
1010010011
10011101111
1110101000
1111110011111000
111011111
1011000110
10100010110
11001
1111110010001010
10101100001
111000101
10101110001
1001101110
1111111110100000
10010101
1111111001001001
1111111110100111
10101110
1101011110
11001001001
10111010010
1111011011
10010100111
1000000010
1000100010
1111111001111110
10100100
1111111011101101
1100010100
11110001
110111000
1111010111110011
1111101100011000
10100011
10001000111
1001011
1111110101010010
10011101101
101100011
1010101001
1111111100110001
1101111111
1010111111
1110000000
1100000100
1000010001
110010001
1011001110
100111110
1100000000
110111110
1011101110
101110010
1011100
1111111101011010
1111101111110111
1101100110
1110110000
1111110101110010
1111010010011001
1111101011011111
1100011110
1110010010
1111110111110010
1111101011001111
1101101111
11000110001
11011010
1010000110
10010011100
11011011
1110111011
1111111101001010
1111111001110000
1111111000001011
1111110000001110
1111111010010110
111111110
100010
1100000111
1010110100
10000010
1111111001011111
1111111011000011
1101010011
1001100000
1111100101101100
1111111111110010
1111100110111010
10101001001
1111110011011111
1111110101010000
1111111111010011
1010010100
11001001101
1111111010100111
110001001
10011000
1111111101110001
1111110111110010
1111110010001010
1111101000111010
1111101001011110
1111110000000010
1111110000000011
1111111100000011
111111000
111110100
1011000111
1111111100010000
1111111011011010
1111111100010000
110011110
110001100
1000111100
1101110011
1001
1100110010
1111111001111101
1111110011101001
111000000
10001110011
10101100010
1111111011111111
1111110000001010
1111101101111101
1111101101101000
1111110001110000
1111101111100011
1111110000001001
1111110111000001
1111100011100001
1111100101110110
1111111110100000
1100101000
110101101
100101000
1111110111001110
1111110111001101
100
1111111100101010
1101100011
1111110101000011
101101100
1111111110110101
1000110000
11111
1011111001
1101110000
10001000000
101111000
1111110010110000
1111010111100101
1111101100001101
1111110001101001
1111101101101011
1111100111101110
1111101100010100
1111100101101111
1111011010010101
1111110000011001
1111111010010010
100110101
1001000111
101111
1111111110000001
11001011
1011010001
1101100100
1111111011111010
1111111011000010
1101100000
1111100100010101
10001001000
1111101101101000
1111111101111101
1101000110
11000001101
1111111101001010
11101111
1111011111100100
1111100010101110
1111110110000100
1111101000000010
1111011110111111
1111100111011011
1111101110100000
1111100100011000
1111110001111110
1100000111
10001100001
1011011100
1001101010
10000101
1110011
1111111100000100
1
1111111110100011
11110011
101010110
11100001101
1000111001
1111100110001001
1111110111101000
10011111011
100000000011
1111111111111100
111101100
1111101100001010
1111111111000101
1111110110010010
10110110
1111110011110100
1111110000000011
1111101000111101
1111100001101111
1111111101000110
1010101000
1000100010
1001010110
100111010
1111111110001011
111001
1111101
11000111
100101110
1000111111
1111110001101011
10001010101
1111111011000111
11010100110
1111111110001010
1011010001
1111111011010100
10111000011
1111111110010001
0
1111101100101010
1111110100011101
1111111001100111
100111100
1111111001011110
1111110100111011
1111110111000011
10000101000
1010110001
1111111110110011
1100101
111110
1111110011010001
1111111111001101
1111111110000111
101101100
1111101111111101
1111111001110010
1111111001011111
110010001
10101100010
10000101100
1001
1111110111111011
1111111000010010
11010100100
1111110010011010
1111101101111000
1111110011111101
1111111010011010
1111111000111010
1111111101111110
1111111000011001
1111111111011000
101001111
111010101
110111111
1111110100100011
1100010
1111111101110001
1010001101
1111110111110101
110101
1111111011110010
1011011110
100111100
100001010
1111110001011000
110100010111
110100101
1111111101010000
10010011101
10000001010
110100100
1111111000111001
10000001
1111111101111011
1111111010000001
1111101101001100
1111111011101110
1111111011101101
1011001
1111111110000000
1111111100101101
1111111011100011
1111111000001110
1001
1111111100010001
1001100001
1111111010101110
1111110011100111
1111111101001100
1111101101000111
100110
1111110110111001
100000100
1111100111100011
1111111011111101
1111111110000100
1111111010011000
11010001001
1111111010111100
11001100
1111110111110100
1111111100110011
1111111001011110
1111110101010110
101000100
1111111101110011
11001100
11010101
1111110100110000
110101
111111111
1111111010111100
1111101101001100
1111110011111001
1111111010110101
10010100
1111111001110100
1111110100000000
1111111110000010
1111111010000001
101001000
1111101110011000
1111110111110010
1111111101110011
111001
1110011
1111110011010100
1111100100100111
1111100110011000
1111110111100110
101110010
1111111011010101
1100001011
111011100
1011101101
10110010
1111111011000110
1111111101001101
101111
1111111011011110
1111111001011001
1001000000
10000000
110101
1111110101000010
1111110001110110
10111110
10010101100
110111100
111010001
1111111111111011
1111111111010100
1111111110100110
1010000111
11010101010
1111110010101000
1111111101011011
10010100010
1111111111110110
1111111010100100
1111111011010010
1111111000100010
1111111111011000
1111110111000010
1010001
10000100101
1110111011
1001011101
110101110
10011100100
1011101011
1111111100111111
11000110
1111110101001010
1111111110001101
1000100
10010010010
10100010111
1111111110101101
1000
1111111101101110
1111100100000101
1111101001001100
1001011000
1111010011
11101000
1100010011
10100110
1001101001
1100
1111111101000011
1011101011
1000000110
11111000101
11011010011
10101110111
1111111100100111
1100010001
1111110100001100
1111111110110001
1111110001000111
1111101100111110
1111100011000010
111000010
1011000001
1111111111011011
10010011
10011110
1110111
10000111
100001011
1111100001000000
10001011011
1000101000
1111111010000110
1111110111000010
1111111101010111
1000110101
1111110010110110
1111101001000110
1111110010111110
10010000001
11010110100
1111110011
110011000
10100000111
1111111101011000
1111101000010100
1111100011110100
1111111101000001
10001011010
1001010001
1111111110000110
111100
10000001
1101111
1111111101111100
1111111111100000
1100111
1000000
11011100
1111101101011110
1111101100010011
1111110110011110
1111110010110110
1101110011
1111110001010111
1111110011101001
1001010011
1110010000
11101011
11001011001
10001011010
100000001
1111100101011100
1111100010111111
1111110100111111
10001100100
11001111001
0
1111111111110000
1111111111011101
11011
