1111111111010011
1111111111111100
1011111
101010
110
1111111101100111
1111111101010010
0
1111111110011010
11000
10000001
11101
1111110011111111
1111101000111001
1111111011101011
1111111111111111
1111111111101000
1100100
1111111111100111
1000100
1111111111001101
1111111101110000
1111111101111001
1111111111001010
1111111101110011
1111111110011100
1111111111010001
1111011
10101100
1111111111100111
1101111
1111111111001011
1111111000100000
1111110100000010
1111100100100001
1111011101111010
1111111010100101
1111101100111000
1111101000011101
1111110010010111
1111101010111000
1111011001110101
10001001101
1111110010001111
1111100110011001
1111001010101111
1110111010101101
1111000100100011
1111010011100110
1111011000001010
1111100100011011
1111100111000110
100101
10011000
1111111101111001
100001
1011110
1111111110000011
1111101111100000
1111111001110101
1111110100011010
1111001111011011
1111011001001000
1111000111010011
1111010010110010
1111101110111110
1111011010000001
1111001010001000
1111010110111000
1111100011010010
1111100100100010
1111101000110111
1111110100011011
1111110010111001
1111010001110111
1111010010010011
1111111101111010
1111111101100000
110110001
1111111111011001
1010110
1101101
1111111110110111
1111111101011111
11001
1111111110010110
110101111
1111101001111110
1111100101101100
1111110001011101
1111101000100110
1111111101000011
1111101111100110
1111101110001100
1111111000100100
1111111010110111
1111101100101101
1111101101101000
1111101001010101
1111111100101101
111110
1111111101000110
1111111111010101
1111111101110000
1111111101000011
1001011
100000011
11000111011
1110110111
1111111100111100
1111110000000101
10101001
1100
10011001
10001101111
1111111000111000
111111100
1111101110001000
1111111010101010
101101011
110001
1111100000111111
1111101011110111
1111111100101010
1111111001101110
11101011
1111101100100010
1111110111011001
1111111001100110
1111101100001100
1010001
1111110111111100
1010011110
100010011010
1000111100
1111010100
1111000101
1111110110011000
1111011111010111
1111100101110100
1111111101101011
1111111110000010
1111100101000000
101010100
111011000
10110000
1111101111101001
1111111110100110
10100110
10
1111111100000011
1111111110110101
1111111101000111
1110100
1111111100100101
1111110111110001
1111111100101101
10111001011
100001101100
10110111001
1100101001
10100101101
1111111010
11101001001
100010111110
10001011010
1111110001001001
1111111101001110
0
1101101
10010000000
101010100
1111111100101010
100001001
1111111000000001
1111110100101101
1111111011101000
101000111
10101001111
1111111111001010
1111111110101100
111010101
101000011
10010000101
11001001101
11101100100
100000001001
10101101000
1010110001
1111111110010010
1111111100111101
1110100101
1000001001
111100000
1100111011
1111101100110110
1111111100111001
1111101100000110
100111100
1111111011100010
1111110011011011
100011011
10010101
1111111010010000
101111011
11000
1111111111101110
1111111000011101
111000
10001110001
1101110010
1111111110
100000010001
100100100101
1010001110
1010010011
10110011
1111110111101110
1111111010000010
1111111010100111
100101
111101111
1101000000
1111110011000011
1111101001000101
1111110100110011
100111011
1111110011001000
1111111100111101
110000110
1111110101110100
1111111011110001
1111101011100100
1111110000000100
101011100
11111001
101110
1111111011001100
1010110100
10111001110
11001000011
1011100110
1111111110101000
1111111011000110
1111110110101000
1111111100001101
1111111010100000
1111110001000101
1111111101001111
1011100100
1100010110
11010001
1111111001010110
1111001001101100
1110110
1011101000
1111110
11110001
1111111110011110
1111111100100100
1111110000110111
1111111010010001
11
1111111000000010
1111110111011001
1111110110010010
11010011
11001100100
100110011
1101001011
1111111100111011
1111111101000001
11011111
10110100
110110
1111111100010110
1011001000
1101000011
11111100
1010110000
1111111100100011
1110111110101011
1111101101001110
100001100
1111111110110101
10110100
1000100010
1111111101110011
1100110100
111000110
1111110111000010
101001111
1111111000100100
1111101110010101
1111111011000010
1111111010100000
1111111111011111
1111111001011111
10000111
100001111
1111111010011000
1111110110101110
1111110110111011
1111110111101001
1100111010
10011111001
101100000
1111101000100111
1111111001111101
1111111110101101
1101000000
100000100100
1011110001
111001111
1011011010
11010101
111011001
1101111
110100101
1001011001
1111111110000000
1111111000011001
1111110001001101
1111110011101011
1111101111111110
1111111010100000
1111110011000001
1111110100111011
1111110000011000
1111111001010010
1111111000111101
1111110111000110
1111110000100001
1010100001
1111111100101011
1111110011001101
1111111111111011
1111101001111011
11010100111
10001000010
110011010
1110100
1010000010
1100011
1111111011011110
101100
1010001000
1000100101
1110010011
1111111101011000
1111110110000000
1111111001100011
1111111100010110
1111110011100000
1111110110000000
1111110000100111
1111110001110011
1111101111101010
1111110101000011
1111111011100010
1111110000100111
1011011111
10111111011
1100010
1111110101010110
1111101101010001
1111100011101111
11110010011
10000100000
10010100110
110100001
10101111
110100010
1111111100001010
11101001
1110010110
10000101111
1011100000
111100
1111111011100101
1111110111011110
11011001
10000
1111110001001011
1111111010111101
1111110100100010
1111110111111000
1111110001010000
1010
1011111010
1011010000
1000010
1111110001001100
11100111
1111100011111010
1110011001
100110110101
1000111001
1111110010100110
111001001
110111010
111111101
1101001000
1001000001
1011111101
1111111100100001
1111111010000100
1111111101000110
1111110101010100
1011101110
1111111101101001
11010110
1111111011001011
1111111001100011
1111100001100001
1111111111000000
1111111001111101
1111110110111011
1001011100
1111101101101010
1111110001100000
111000001
10010000
10010000000
10011001010
1011001010
11011011
1110101011
10011000111
10000000
1111011101
10000000011
10001
1111110111100011
1111111000111101
110001001
101000001
10
1111111111010001
1111111111000101
101101011
1111111001001010
1111100111111001
1111110011011001
1111101011010100
1111101101011010
1101010000
1111110111011111
1111111000101001
1111110011100000
101000011
10001111111
1111111000011010
110010001
1111111100101001
100110000
1100111110
10110001
1111111111001110
1111110101111101
1111110011010000
1111110011101100
1111111100011110
110101000
111110010
1111111000011101
1111111011001101
1101011000
1010100011
101101100
11110011
10111100
1111111110100001
1111101010011111
10101
1011011
1111111101100100
1111101111101101
10001000100
1111111010101000
1111111110101110
1001111110
10101000010
11100111011
11101011110
10001101000
1010101101
1111110010010000
1111101100101111
1111110111010011
1001001
1101001110
1000001010
1100011010
1111111110101111
1111111111101010
1111101110111010
111011
1001001100
111111010
1111110000111001
111111
1111111110
1111111010000111
10001110011
1111111111110010
11111100011
1001000111
1111111000110000
1011001011
10010000100
1010000110
1100000010
10011100011
101000000
1111110101011111
1111101101111010
1111111000110011
1111111110000100
1000010
10010111010
111100000
11101111
1111111110001110
1010
100000000
1000010
1111111001100111
101100101
111101101
1110111
1111111101101000
1111111000010000
1111111010100101
1111111011010010
10000000011
1111111110101101
100001011110
1100111100
1111000000
1011000100
1111111011000000
1111101110001001
1111100100101110
1111101110110011
1111110101111100
1111111110010100
1111111111011010
1000101010
1101101000
1011110111
100000110
101101000
11000100
1111111111000101
11110010
11010110100
10100001000
1111010110
1111100111111001
111011
1111111111001100
1111111100110001
1001010000
10110011011
11100100101
1010001110
1101100110
11101101
100100000
1111101011001001
1111100111110000
1111100011100111
1111110101001100
1010111
1111111111011101
11000001011
1111100110
10100100001
1110001011
1111011110
10111010110
1000111011
1101101100
1100010011
1101001101
1001100110
1111111100011101
1111110100000110
1101000100
1101101111
1111111111111101
111010110111
10110111011
1110011110
10100001111
1111111111100110
1111111101100001
1111111001100111
1111110001110001
1111101011001110
1111110010010000
1111111010111111
101011000
11001011100
110101100
10001100011
10100000111
10000000100
100000101100
10000001001
101111001
10011010111
11001
1111110011001101
1100111
1111110101011100
1111110010110001
1010100111
101110000
101000101000
1111110010111101
11011101100
11111100
10100001
1111111110010001
111011000
100011101
1111111001010100
1111110111100111
11001101
1000100101
1011001001
1001010010
1100111001
1100110100
1101010110
100010110010
11010101110
101110101
11000101000
1111111000000001
1111110110001100
10101001
1001110
110101
11101100100
1110110
10001001110
1111111001101000
1111111001001010
1111111001101000
1111110111011100
1111111011111001
1111111110111100
1111111101100111
1111101011100100
1111110100000110
1111111000000110
1010010101
111110101
1101010000
10010011010
100000101001
11110111111
1101111101
1111010001
1001011
110010101111
1110000
110011101
1111111110111000
10110
1111111110101010
1111111011001011
100000101
10100110010
1111111100011110
1100000001
11001110011
1001110011
1111111101101001
1011101000
1111111010011000
1111100110101000
1111100011010001
1111101010110010
100110110
1111111111000111
10001100100
1011000110
10010010001
1110001110
1111110111010011
1111111101101100
11001100000
110001011001
1111110100101110
1111111111001001
1111111110101101
1111111111101001
1111111101110010
10011111011
1111011010011010
11011001
1111111110100011
1111111100101111
100011110000
11011001010
11100000001
100011101000
1010011001
111010000
1111110110101001
1111111100010100
1111111011010011
1111111111111011
1111101101110011
11101000
110101101
1111110111110111
1111111101110101
1110000100
1111111100100010
1010101101
1110000101
1111111100010001
1111111110110000
1011101
1111111101010111
1101111
10100001111
11010010000
100001010110
110110011111
110111010010
100101001101
1000000010000
1000010101100
11001111010
1111101011
101011111100
110101001101
1000001001100
110111111101
100001111010
110111011100
110101000001
101001001000
11011101000
10010000
111101111
1111101111010110
1111111000010000
1001101
1111111111001010
1101110
10001010
1111111110100011
1111111111101111
1111111010011011
1111101010011011
10001000
1111110100101011
1111110001111110
1111100001101011
1101010100
1001010011
1000100001
110100110
100010010111
1010100
1111100000101001
10010001010
11010101000
1111111100000100
11011011
1111111111010101
1111111010101011
1111111010100100
1111111110011101
10001010
1111111101011110
1111111110011001
