1111111101011000
1110010
10001010
1000110
101011
1111111111100101
10100111
1111111101110100
1111111110011001
1111111111101010
1111111110111001
1111111111110110
100011110
10010001
1111110111011011
1111111100110111
1101011
1101001
1111111110100010
1000
10011110
0
1001001
1111111111010111
1011100
1111111110101010
10010010
1111111101100000
10001110
1111111101010110
1111111110110100
1111111110110010
110000100
110110010
1111100111
1101001000
1111110110101001
1011
111001111
10111001001
1000000011
10010110101
1111110010110001
1111101100010111
1111100011011011
10100010101
10010010000
1011011000
101100011
10001011100
1010010000
10111001
10101010
1111111111100000
1111111101111000
1111111111001001
1111111111000101
1111111111110110
1111111111101101
111000100
10001111010
110011001
1111101100111100
1111011110000000
1111011110001001
1111011011011100
1111100110000000
1111101110011001
1111110100111101
1111111101000110
1101
1111111101101011
1111111001100010
1000101111
1011001111
100001110011
1111011100
1111110011011011
11000111011
1111101100100001
1111100111001111
1111101101100100
10110
110001
1111111110100101
101011
1111101000111000
1111110011011000
11000001
1111111100011000
1111110010011011
1111110101000100
1111111011111110
1111111110100100
11000111011
101100111000
1010100011
11000100
1000001110
1000010100
10000010000
1110010001
1111110110101100
1110111
1001010100
1100110011
1010011111
1111111100010100
1010101
1111110110011111
1111101111101100
1000100
10010001
1111111111010010
1111101011110111
1111111101001001
1111011000
100100111
1111111011
10000101111
10000001001
10110010101
1111111111001111
100111101
1011100000
1111000011
10100011
111001110
10000010011
11010011111
10110001000
1111110111011100
1101110011
10110011010
111101110
1101010
11111100101
111000010
100000001
1111110100000010
1111111110110100
1111111110000000
1111010101011110
1111100010111100
1111100100100000
1111111010111010
1111111010000100
1111110011110110
1001111001
100100111
1111111110111010
1000100010
1111111110111101
1111111110001010
1111111101100100
1111110110011100
1111111100001100
11001100111
1111101100
1111111110011101
10010100010
10001001
1111110100110001
1111110010000110
1001010010
1111110001100010
1111110010100001
1111111111000000
10000011
1111111111101001
10101011101
1111101101111010
1111111111000001
1111111011010000
1111111101000101
100110
1111111011000010
1111110100001010
1111110100110010
1001100
1111111110100100
1101001001
1101011
1001100
100000010
1011011100
10100110111
1001111001
1100101110
1000111100
1111111000001011
101001110
1011101110
1111110101101011
1111100101100100
1111101100001101
10111100
1111111111101010
1101000001
100101001
1000010
11000010
100110010
1111110001001000
11110000
1111111100110101
1111111100110010
1000111101
1000111110
100110110
1111111100100110
111101
1101110101
1010111111
1001001000
1001001100
1111111111101111
1111110000010101
1111110101101011
1111111010011110
10111000101
110111011
1111011101100010
1111110101100101
10101110111
1111101111101101
1111111100011000
100011110
1111111000100101
1110101111
1100000011
10001011
110100101
110110110
1111111111000111
111010101
1111111100011111
1111101101011011
1111101001100111
1111101111110101
1001010111
10111011
1111111111001100
1111110111010011
1111110110001001
1100011
1111111100110001
1111110001100100
111111
1111111001111000
10111000
10110000000
1111110100110010
1111101110110001
1111101101110110
1111111110111000
1111111000010000
1111110111010100
100100
110010110
1011011
1111101111110001
10111101
1111110001000111
1111100101001110
1111101001001110
1111101101101000
100010010
1101100000
1101010101
11010111
1000000110
1111111010010111
10110110111
110100101
1111101101100010
1111110111111001
1111111101110000
1111010101001001
1111111100001110
1111110011100000
1111100101111110
1100010
1111111100100011
111000
1111101010011000
1111110110111100
1111110111111111
1111101111000001
1111100110010010
1111100111010101
1111100000010100
1111110101000011
100010101
10000100010
11110001110
10101111111
101
1010010
101000001
1000
101111001
1111111001011111
10001101
111111001
100111
1111110111010010
1111110001100100
1111111011100000
1111000001
11010101110
1111011111100001
1111100100011111
1111100110111111
1111110101001101
1111101111110110
1111101010110011
1111101001010110
1111110011101101
1111110011110010
10101101100
101010010101
100111011001
100001010001
11000111010
1011011011
100100111
101011001
1111111010111011
1111111100000101
11101100
1111110100010010
10011011
1111101110100110
100000111011
1000001001
1111111000011010
1111011110010011
1110000100
1110111001
1111101110100100
1111111011110111
1111110110101101
1111101110000101
1111111101111011
1000011000
10111000011
111100111011
111000010100
110101000010
1111000110
1100111011
110000110
1111111101101001
1111111110101001
101001
1001
1111101010001100
11001001
1100110010
1001101
1111110010101110
1111110111110011
1111111111011111
1111111000101000
1111110010000010
11100011
11110011011
101110000100
11010100111
100001000111
101000111000
101100011010
101010010000
1000100100110
1001101111100
101001010001
10111
1111111010101011
101100001
1111111011101111
1111111011011000
1111111111101101
1111111101111001
101
1111111010101011
1111111001111111
1111110101110011
1111110011001111
100111101
1111101110010000
1111110100000110
11111101
1111111110101100
1111111000110110
101001100111
1010010100001
1001100010111
1011000110110
1011010001111
1010111000001
1000011100000
11111101110
10000000110
1111111110001001
1111111000001110
1111111001011110
11000000
1111111010011011
1000010
1111111111110010
1111111000110101
1111111001010110
1000100111
1111111111010111
101011100
1111110011101010
1101111001
1111101001000111
1111100010011010
11011010
10101101001
1111110100000111
100101001001
1000101101100
110100011010
11100100101
101100100011
1110111000
111101100
1111111110010111
1111110000111001
1111110010110111
1111101011111000
1111110111100110
11110
111011
11010101
11001111
1111111100110010
1111110101010100
11011100
1111110110010100
1111111110101110
1111101011111110
101001111
1001011100
1111110100001011
10110000
1111110111111101
1111110110100101
10101101
11101101011
100001100
1111111110101101
10000001
101010001
1111101111000011
1111101101000111
1111110000101110
1111111001000000
1111110010100101
1111111000011010
1111111011100100
101100
1111111101001001
1111111101110000
1111111100010111
11010101
1111110000100111
1111111001011000
1111111011010001
1111110101110010
10000111011
1111110100101000
1111110001001100
1111111101010100
1111101101000100
1111111001100101
110111100
1111100110100000
11101100
1111111101011001
110100000
100101111
1111111101011011
1111111100000011
1111111110010000
1111111101110010
1111111101100110
1111110111101000
1111111111011001
1110001
1100111
100011100
1111111011100101
1111111000010111
101110111
1000101
1111110101000000
11110110
1111111100000000
10001110100
1111111001001010
1111111010110110
1111110011010000
11011101
100100110
1111110100101101
111000
10111011
1111111101001111
1111111101000000
1111111111001110
1111111100001001
1100010011
1111111101011101
0
1111110101111111
1000100
110011101
1110001101
111010101
111010
1111111100010010
1110111000
1000000101
110110011
1111101001011101
1111110001111001
1100110111
1111011111110111
1111110011101001
1110000101
10000110001
11100100011
1111110000110111
1111111110000100
1111111101001101
1111111111101100
1111111001001101
1111110101011101
1111110110001110
1101001
111101001
1111110100000101
1111110011010001
1111110101101010
1111110101010010
1111111100100000
1101100110
1111110110100100
1111111010011011
111111101
101000011
1100110010
1111111011111111
1111111000101100
1111101101011001
1111101000010101
1111111101101001
10011110000
1011010010
100011111
1111111100111110
1101011
1111101111110000
1111111000100101
1111110101001100
1111110111100011
1111111011110001
1111110101111001
1111111110011110
110010001
1111111100011010
1111111111111101
1111111100101010
11001010
1000111010
110000010
1111110100100100
10101000
11100101
1111110100111111
100010011
1001010
1111110111000010
1111110110101111
1111111000000000
1111101011001111
1111110000111001
11100110
1111111110001101
111011
1111111110000010
10001
100011
1111111000001100
1111111111001101
1111111110110110
11111011
1111111100011011
1111111100111100
1111110101010110
11001110
100000101
11010100
1111110100000010
1111111110011111
1111110100111110
1111111101011001
1111110010101000
110001010
1111111000100000
11000011110
11101100
1111111010100010
1111111010100111
1111011101010111
10100010001
1111110000110111
1111111011110101
101111001
1111110111000000
1111110101000100
1111110101000101
100100011
1111111100101101
110010001
1000101100
100010100
1111111000100010
10111101
1111111001100001
1111110111010000
1001000
101111
1111110110111001
1111101111010100
1111101111001101
1111000
1111110010000101
10001111001
100111100
1111111110010000
1111111111110011
1111110000111000
100101000010
10100111
1111110011111110
1111111100110110
1010011
110101000
1111110011110101
10001
1111111101110001
1001101
11111
1111111111100101
1111110011010101
1111110110101000
1111110011101010
1111110000100011
100110111
1111111101101001
1111111100101000
1111110100111000
1111101100010011
10011011100
10010011
1111111111000010
1111111110101101
10101010
1111111111000001
1111110111010100
1111111011110110
100010111
0
1111111101111000
1010111111
100110011
1111111110001110
1011101
1111111110010111
1101011
1111111110
1111111101001011
1111111001010010
1111111110001111
1111111101101010
1111111110011111
1111110001100111
1111111010110010
11010100
10000110110
1111111111010111
1111111001010110
1111011010000100
1111100111111000
1111111110011000
1011110
1000101
10000111011
11011100101
1101101100
1011000101
10110111000
10100111
1111111010000001
1000
1111011011
111101011
1111111100010010
111101111
1111110110111010
1111101101000101
1111110111000110
11010000000
11010000
110111011
110010101
1111111101000001
11001001
11110111010
110001101111
110110001
1111110111001111
10010110
1111111111011001
11110
1111111101100111
1101100110
101001010011
11010100111
11100011101
11010
1111101101000100
11101101110
11011100
10000001111
1100100111
10001010011
10111011000
11000011010
100010110000
11000111111
1111111110000000
11001100
10010011101
101000100011
101001011110
1101101001
1111111001100000
1001011101
1110100
10100010
1101111
1111111101010111
1111111110010000
1111111101101010
101000
11010010
10000000110
1111110010010100
1111101011101010
1111011101101100
1111011011101111
1111111110010000
101010010
1111101111111011
1111101101000110
1111101110000000
1111110000010101
1111101001010100
1111110110000011
10001111011
11101110100
100001101001
10101001101
1111110010110011
1111111111100110
1111111111111110
1000000
101001
