101011001
111011000
1111111010110011
10011000001
1111110001101011
1111100110010001
1111110110100001
10011010110
1111011001001001
1011001010
1111110110010001
1111010011100010
1111101100111001
10001001100
101111110100
1000000111
11110101100
1111110011101100
10010111010
1111100100100100
1111101011111011
1111100001001010
10011001010
1111011111110011
10110111101
1110111001100110
1111010110000011
1111011010010110
1111111110001010
1111111011101111
