1101100001
101001110110
1000000110110
1111011011111100
1010110011
11100000010
1111101111111010
1111110100000111
1111111001111011
1011111
1101001111
1111111001011010
1111001110111010
1111011100101001
101001110
1101011100
1111111101110110
10000110011
1111100001100111
1111000010
1011100111
11011100110
1111100111001100
1100010
1111100110101010
100111000110
10111011100
11100010
1110110001110000
111001100000
