100000111
1000101001
1111110101101001
1111110011000111
10001000111
101111110000
1111101101110010
1111110000100010
111011001110
1111110011000011
10010001111
100100111100
10010111100
1111110110100100
1111011001000001
1111100001111011
1111011010001111
1101101000
1111110110111100
11111011110
10010110100
11010111110
1111111101100111
10111100001
1111101000111101
111110001001
101100101011
11010000010
110100110
1111110110011100
