11101110000
1111100110011000
1111101110
11011000011
1111100111111100
11100111000
1111110011001110
10001100010
1110110000010010
10110100100
1111011101010000
1111010001011010
1111100110011010
1111111111110100
11011111001
1111110010000111
100010100111
1111101111000100
10001101101
111000111
1011111010
1111100110001011
1111111110000101
101101011000
10001110011
1111011111101010
1110110100100001
1111011011110100
111010100
1000001001
