1111101101001110
11101110
1111100101110100
1111110011001010
1110100011001000
1111010101111101
1111111110100101
10011010100
1010001100100
1111111100101110
1100001110
1010001110
11000010000
1111111100100110
1001110100
11100111100
1111111101001101
1111110011010100
1111100010000010
1111101100000010
1110111100101010
1111011000011011
1111111100010110
1111100011000110
10110100011
101011010011
1001111110
1111101000100111
100111010000
1111100011111100
