110000001
10111100011
1111111000001011
10110011001
1111111100100011
11110101111
1111101011110110
10111100
1111110001011110
1010101011
1111010000111111
1111110001010111
1000000011
110001011
1110000010
100101100001
1001111
1111111111100101
100010101101
1111101100101000
1111100110111001
1111100100000110
101011001100
101101010100
11010111000
1111111100001011
1111100101011001
1111101101100111
1111110010101010
111001010
