10000100
100010011001
1111100000
1111010110000011
10010001111
10001111111
1111011101000101
1111111101101100
1001010
10101111101
100001111100
11101010111
1111101001010011
1111001101111100
1111111010111101
1111100100001101
1111111110000101
10100101110
1110011100101010
101011101010
1111110010111011
101010100110
1110110010011100
110110111101
1111010100110001
101010011101
1111011101011100
1111101101001010
1111111011101110
100100110011
