1011110011111
1111110111
1111101010111110
1111111000111001
101011011111
1111110110011011
1001001110101
11010101001
1111111111001010
11010110
100111111111
1111100001101011
1111000110100000
100101110111
100001101000
1111101011111001
1111011111010110
1111110111110100
1110011000
1111111011101101
100100111100
1111010111000001
1111100111011010
1000100101110
100001101000
1111110111100000
1111110001101000
1111110111000100
1110010001
1111101010011100
