100001111
10110000111
1001101110
10110111001
100110100
10110010
110101101
11110001111
1111100010000010
1111000100000111
1110110011010101
1111010011001011
1001000001
10001110111
1110110010
1111111010111101
101101110011
1111110100010001
110010110011
1111000111010001
111101101110
100111110010
1111010001110001
1111111000000101
1110100110111110
11100111011
1111000001100101
11110101011
1000010001110
1111101101000110
