10000110
1111111101111010
1111111
1111001
10101001
1101111
1111111101111101
1101101
1001011
10101110
1111111110000111
1111111111011110
1110000010
1110000011
10110010
1111111110110011
1111111110101100
1111111101011000
1010010
10000001
1111111111010010
1111111111001011
1111100
10000110
1000111
1000010
1111111101100001
111101
1111111110100111
1000110
1111111110101100
1111111110000001
10100001
1111111101011111
1111111100011101
1001111
1111110010
11110011101
11010100100
1010011011
100010100
10111100101
1111101010001011
1111110011000000
1011110111
100100010101
1101110001
1011100101
10001110000
1101011110
10100011
1111111011101011
1111111111111010
1001101
1111111110011011
1111111111101100
100110
1110100
1111111011111011
100101100
10000100111
1000000001
1000001100
1111111110001000
1010100011
1111100110010101
1111010100010001
1111011100100110
1111100011011111
1111100111110011
1111110000111111
1111110010000110
1111011101000100
1111110011110000
1001111100
1011101110
1111110100000010
1111011010111100
1111100100011001
1111011110001111
1111100111100110
1111101010001000
10100000
10001
1111111111110100
1111111110100001
1111101001001010
1111100011001110
111111011
1111110011010010
1111110011101011
1111100100100111
1111111010100010
1111011000011110
1111100100010010
1111111110110100
1101
1101111000
101000011000
110010110110
11110010110
10001111100
10101110001
10000001010
1111110011011101
110001100
1111110011010111
1111110110100111
1111100011010100
1111111001110101
1111101000110001
100100
0
11000111
1111101010000001
1111100001111101
10111010100
10110
1111100111011100
110001100
10000101101
11101011
1111110111101101
1111111011011001
111100000
10011010111
1111111011011010
1111110010011000
1111111100101110
101101000
1111110110110001
1111110101000100
1111101011000001
101011101
1111110110110001
110011011
111100110
10101011110
1111110100001000
100100001
1111111111011011
1000100
1111011000000100
1111110011000110
1001101011
1111110111111000
1111110010011011
1111111000010011
100110010011
101100001000
110101000011
100001101011
11010010000
11010110110
10001111010
1111111110000110
10011000011
11000000100
1010010000
1100000000
100011011
111001
1111110101101101
1111111000001000
1111101110010101
1001100011
1111101100111010
110011010
10001001
1011110
1111111010111011
1110111011
100000000
1111110100111110
1111110000011111
1111111110100010
1101111100
11110010000
100101011010
10110001111
10000001000
101001001000
1111101001
1110011011
1011110011
101011110
1111111101000001
1111111010110110
1101101011
1101010111
111110101
1010011111
1100110111
1010111010
1111111010010100
1111101110000110
1011
1111101100110110
1111111111111100
1110010111
1
1111111100000110
10001101110
11110011
10101111100
1110001000
11010111011
1101111011
10101011001
11011001100
1111111011000011
100110100
101001010
111001110
1111111110011001
1111111000000000
1000011100
11100011
11011
1000010000
10000110101
10010101100
1111111010011011
1111110001010110
1111111100111101
1111100011001000
1111110101011110
100010110010
1100101110
11010101110
10110111010
10000010100
11000100110
10010100011
1111111010101110
1101111011
100011011111
1111111101001111
1111110010000110
1111111000010010
11011001
1111111010010110
101000111
1111111101100001
1111111111110100
1110010110
1000111101
1000011000
110001110001
110111001111
1001111
1101101
1111111111110100
1111101111100001
1010111
1111110000111111
1111101101101000
11110000000
111101011
10001101110
10101111101
1101010101
1110011100
1111100001
1111100110
1111111110110111
1111110111000111
1111100100000110
1111101101100000
1111111101100010
1000001001
100110110
1110100000
1111111100100010
100001101
100000111011
11001011001
11100000100
11000
1001001111
1111111111110111
1111100101101110
11010101001
10000010001
1111111110000011
110
11011100001
11101001100
11010010010
1111111101101001
1111111110100110
1111110011010111
1111111010000100
1001011110
1111110101011110
1111100110010000
1111111000000101
1111111100011111
10111100
10001011010
11101101111
1100110010
1111110000011000
1111111101110000
1100110000
1111111101001000
1111110010110011
1010010100
1111111110110001
101110100
10010110
100001001111
1111111000000000
110001101
100011111010
101011100011
10010011001
10111011
11000110011
10100100100
11010110011
10010100010
1111110110001000
1111110100001001
1110101110
1111001011
110110
1111111110101101
1111110101110100
1111101001100010
1111100000100100
1111100100111111
100010110
1111101000101101
1111110111000100
1010011110
1111111101110100
1001001100
1110
100101010011
1111111110101000
100100000010
11111010110
101011011110
101000110111
111100001100
1001010000000
111000011011
11101010100
10101111110
1111101111011010
100101011
1011010011
1011111
1111101110000011
1111111111010011
1111111000010110
1111110110000111
1111100111011100
1111110110111000
10011110010
111111110
1111111000100010
111101
1111110100110010
1101011100
1111101010011001
1010001100
11010100
1110000100
10101110010
1101001111
110001100010
110110101001
110101010100
1111100001
1111110111101010
1111100100110110
1111100111001001
1000010101
1111111101010010
1111111100100000
110111001
111011101
1100111001
10100111
1001111010
1010011110
111111110
1111111100111000
1111100011000101
1111110011011100
1111111110000101
1000111011
1111110100111010
1111110110001111
1111100001110000
1111110010100011
1101011
1111101100100011
111001100
1111111110011111
101000100
1111101111001000
1111101000010010
1111011110001101
1111101101100010
1111111001011011
1111111001001001
100000001010
1100010000
110110100
1001000101
100100100
1111111110011011
1
1111110000101000
1111101001110001
1111011010100010
1111101011011100
1111111111101001
110011001
1111110010111100
1111111110010011
1111101001111100
1111101011110011
1111110101111000
1111111011001010
1111110111100111
1111110010001101
1000001111
1111101011101001
1111110011110010
1111100011101100
1111110101101100
10011
1000000110
11000111001
101001010
1111101101010011
1111111100100001
1011111
110001110
100011111
1101100111
10111010
1011011
1111101110111000
1001001
1111101001010010
1111110101110111
111000
1111101000000111
1111110110001000
1111111001110001
1111111011111110
1111111110101000
1111110110010110
110001
1111110001110110
10101000
1111101001011001
1111111011001000
1111110100010111
100100001
10100110101
10101100
110000100
1010101011
1110111000
1111111110010010
1101001111
10100110010
1111
1111101111001011
1011111011
101
1111101100101001
1111111000111111
1100110110
1111110010111001
1000011
1111101101100101
110011111
1001001000
101101110
1111110111101011
1111110010111100
1111111010011111
1111110001001010
1111111110101110
10101010
100101010
110000010
11111101
1111110011110110
1111101110110011
1111111010011111
110011011
1011100100
1011100101
1111101111101011
10111
10101110101
1111111100111110
1111111011100101
1111110001100000
1111111011110001
1111111001001010
1111111010110011
1111110100111101
101101
1111110010001100
1111110101011010
1111101111010101
1111110111010100
1111101111111101
1111101000100111
1111110010000011
10000000
1000010001
1111111001110000
1111111000011110
1111101111011010
1111111011000010
1000011100
1111110010100101
1111101011000110
1111110100000101
1111100010010000
10011001001
1111100111010110
1111110101010000
10111110000
1111111101010101
1000111011
1111110010100001
10
1111111010100111
1111111101010000
1111111111101001
1111111010000000
1111110101011001
1111111000110001
1111101100100110
1111100011010101
110011100
101101010
101011110
1111111111101000
1111111011111100
1111101001011111
1111111111110101
11000010010
1111110110001011
1111101111001111
1111101110000100
1111100110000101
1111110100101101
1111100111010100
1011011
11001110001
10001110111
1111111111100010
1111100000100011
10001001000
1001110111
1010111111
1111110111110001
1111011010
101100001
1111111000010101
1111111010001011
1111111011001101
1000100011
10000101000
1001011111
11101001011
101010110
1111111110100101
1000111100
11100101001
1
1011001000
101111100
1110000000
1111100010000000
1111110110010000
1111111001011110
1111110111100111
100001110
110101001
1010100000
10001101110
1010011100
1101000100
1110110010
1001001110
1110001011
10111001010
10100101111
1000010010
1100011100
10111010001
11100100001
110111000110
1010100001
1000110
11010000100
11100110100
11110011011
100000101
1111011011010101
1111011101011110
1111110101001110
1111111110111011
1111111000011101
1111110101001011
1111111011111000
1111101111110111
11011101110
1011101110
10000100000
11000100111
10001110001
101010010
11010011101
11100010110
11010001010
1010011100
111010110
100101000110
110110000
11010110110
10101110001
1000000110
11110110
100011101010
100001010011
11010010011
1000110100
1111101000101000
1111110100011011
1000001
10100101
1111111110000000
1111101110110001
1111100111111001
1100010100
1111110101110110
1111111000101011
10100000
1111101101011000
1111111111111110
10111
111100100
1010100
10100001
10111100001
100001010100
1111101100110010
1111110010111110
111010110
1111111110110110
1111110000111011
10110111
1110010010
11111111101
1111111011001101
1111111011000101
1111011011101110
10001111
1111111111110011
1111111110001101
1111111000001010
11
10101100001
1100101111
1000011000
10010100100
1111110101010110
1111111100110011
100110101
100001011
1001011010
100010110011
100111001100
10001100110
11011010
1111100110010000
1111111110010111
1111111010000111
1111111010001101
10011110000
1111111000001111
101010
10110100
1111100111111110
1111101000001110
10101001
1010111
100
1111111110011100
11101010111
101011011011
10011000010
10110111101
100100010101
11001000111
10000101011
101000001111
100011010110
11000011110
11000110100
101101000011
110100000110
11100100001
101111000
1111111111100110
101111011100
10110011010
1110000
111001001
1111111111100101
1111110111010001
1111110111001110
1111110101011001
1111111101100001
1100
1111111110101100
1011110
1110011101
11100111001
11110010100
11100111111
1011100111
1011100000
101010100111
101111000
10100000100
101110001011
100010011001
111001011101
111001001111
111110111110
100001100010
101000001010
110001011000
1001001110111
110111111000
101010011101
10111010001
1001001
11011
1111111101100101
1111011
1111111101011011
11011
1000100
1111111111010010
110001
1001010
101110010
11111011
1000100000
1001111100
1111111010110100
1101110011
10111110000
11011101001
100100111010
1011100111
10010110010
10011100010
10100101101
11010100011
100000110001
100001100100
10001110110
1111110111000110
1111111110111010
1000011
1111111101010110
1111111101111010
