1111110
1111111110011010
10000001
10011001
10010111
1111111110000010
10101
1110011
110101
101111
1011000
1111111110000001
1111111010000100
1111101001111011
1111101010101000
1111111011100011
1111111111011011
1111111110100010
1111111111000111
1111111110111100
10010101
1111111111011001
1111111111101111
1111111101101001
1111111111011110
1001
1101111
1111111111100010
10010110
110101
1111111101011010
1111001
1111110110110000
1111110011110111
1111010111110111
1111001101100111
1111011101110001
1111000000111011
1110101100010000
1110111010011101
1111000001001010
1111010101001100
1001001001
1111010101101100
1111001101101011
1111000110110010
1110110110000101
1111010001100111
1111011000111100
1111001111101010
1111011011111111
1111101011111011
111
1111111110001000
1011100
110001
1111111101100001
1111111110001100
1111101101100001
1111110111011100
1111101110010010
1111110001011010
1111010100111011
1111000011010001
1111000011101011
1110001111000010
1110100100000011
1110100111000111
1111000101110000
1111100011011010
1111101001100000
1111001110011101
1111010010001011
1111100110100100
1111010110101110
1110101001010010
1110011100111001
1110011100000011
1110111000101101
1111000100100001
1111100100101000
1111101101110000
110111
1111111101100001
1111111110011010
10011011
1111110000011010
1111100111010100
1111111000011110
1111010010110100
1111001100110100
1111001110111011
1111100110101100
1110101101000100
1111101001111011
1111010001010011
1110100000010111
1110100001001010
1111000000011111
1111010111010011
1111001010101010
1111100111101101
11000111001
10010000110
1111111100001010
1111101111111011
1111111010011010
1111111101011101
1111110100010111
1111111000101010
1111111110100101
1110101
1011101
1111111101101110
1111100101011001
1111101000101010
1111101011000001
1111010001110000
1111101100010100
1111011001011001
1111011010110011
1110100100011001
1111001110001000
1111100010011110
1111011001001110
1111100011000111
1111011110100010
1111100110100000
1111100011100111
1111011111000101
1111101101111010
1111111010000111
11110010
1111111111101000
1101111001
111101110
11001001010
1111111111010111
1111110011011100
1111100001111011
11010
1111111111001101
1111011011101111
1111110101101111
1111011110100111
1001010101
1000010
1111111100100100
1111110111100010
1111111100001000
1111100011010110
1111100111111011
1111111000001001
1111111101011011
1111111000110100
1111111000010011
1111101011011011
1111101111001100
1111111000001100
1111111110110010
100110010
1111111011110001
1111110001010000
1111110100001111
10011011
1110000
1111111001010010
1111111101001000
1000000
10000
1111111110010011
1111111101101100
1111101001000001
1111111100011101
1010101101
1110110101
1010111111
1111111111100011
1001000
1001111
1111110100101011
1111110110000111
1111110100010010
1111111010011111
1111111010100101
1111110111111110
1111111011001011
1011111111
100011101
1000111110
1101000111
1001101011
111101
1111101111000000
1111111010100011
1111101110101010
1111111111010010
10100010110
11000111100
11110110
1101111
1111111001101111
110011010
10000000100
1011001
10010010
1111111111010011
1111110110010011
1111111001000011
1111111010001011
1111110100010011
1111110110011110
1111111110000100
1111111000111000
1111111011001110
100111
1010111000
1011001
101010011
100110000
1111100101010001
1111101001010110
1110111000
1111111011000110
1111100111110010
11000011001
10001100001
11001000
10010100110
1111111100000000
1111111011110100
1111110110111010
101110000
10000110
1111110100011011
1011000
1111111110000101
1111111001100010
1111111011010111
1111111010000001
1111111111100010
1111111111101101
111100001
10010010
1001110101
10000110
1111111000100010
100011100
1111110101101101
1111110011110001
110010101
1111110101111011
1011011111
11111110000
1111111011001001
101001
1111101111101001
1111110101100111
1001011101
10101010
10000
1100010111
1111111110011101
1111111100011100
100011100
1111111010011011
1111111101100100
1111111011010110
1111111010110111
10010110010
10111100100
1100011001
101010000
10000010
1000101011
10011111
1111111100111011
1111111011110101
1101010001
10000101011
1001011110
10010000000
1111111110100001
1111110101101100
1111100101100100
1111111011010011
1111111111010000
1111111100101111
1111111010010011
10011000101
11000010
101000000
110101010
10101011
1111101110001100
1111110101010011
111111011
1010110000
1101010011
1011010001
1100010110
1100
10110100
1111110011001001
1111111110111001
10111001111
1111111111100000
1111110111100101
10010010110
1111101111011000
10111111001
1111110111001100
1111111000101101
1001011
110011
1111111111111010
1110011
1000110011
1111110111011100
1111111111011111
1111110011010001
1111101111111010
1111101010000011
1111111010001110
11101
1111100011
1111111110111110
1111111011111110
1100100111
1001101
110010110
10011001101
100100
10000110
1111101010001111
1111111110001001
1011011011
10001110101
1111010011
1111101100001010
110100001
1111111111001010
1010000010
1101000110
10011001
1111111110110010
1111111010111100
1111101110101010
1111101011111111
1111100001010110
1111110011101000
1010010101
10100001011
1100001100
101111010
1111111101000100
1100111
1111111110010111
1111110110011101
10000010111
10110011
1111111101001010
10101011111
10110110111
1111111000010100
1111101110011010
100001011001
1111111010000000
1000010100
1111111001110010
1100
10011010110
1111111011111011
1111110111101110
1111111000110011
1111110110101101
1111100111111001
1111011110011110
1110101
1101111110
1101100111
10010110111
1001100101
1111111101010011
10000110
1111110011100110
1111110000111001
1111100011010110
101100101
1111011
1111110101110101
1111110000001011
1111110001010110
100001
101010100101
1000110010
11011000
10100001111
1111110110011101
1000011111
1111111100010001
1100010001
1111111100110100
1111110000000110
1111100110000011
1111101100100010
1111111000110001
1001101100
1100011111
1010110011
1001001001
11101011
101000100
1111110111010111
1111101111111010
1111101000010000
10011001
100010010
1111100011110101
1111111010111101
1111111000111010
100100
1101011
10000000101
111111000
100101111110
100110110
1010001011
1110011100
1000110101
11110100
1111111111111110
1111101110111111
1111101101010100
1111110001011000
110110100
11111111
10000100001
1001001010
1111111010001000
1011100000
11001101
1111111001001110
1111110111011100
1111110011011011
1111100111001001
11100
1111110010010001
10100011001
1111111001101110
1111110110000000
11111101
11000110
11001010010
11011001111
11001010001
10101100110
11101010111
1111010010
111111101
111011
1111111010101010
1011111000
101111111
1000011101
1000000000
1100001000
1110011000
110000100
10001101110
1111110111011100
1111111000001100
1111101101110111
1111100000100101
1111011110111101
1111111000010100
1111111111001010
1001001101
100101001
11001111100
100001100
100100110
1010111110
10011100100
100011100011
100110000111
100010001000
11000011111
11010000101
1111011010
1000101011
10001001000
110011001
110111111
10111011100
10111000
1111111010101011
1111111010111111
1111111001010010
1111110011000000
1111101010101110
1111111011110111
1111101110011011
1111101111001000
1101000000
1001101110
10101100010
1100110011
1111111100111110
1111111011001010
1111110101001110
1111111000011000
1111111011100100
101110100
10110001111
11001001000
10001101000
1010000001
1011011101
110011110
1101011110
1011100101
1000010101
111011010
1000101011
10100010
1111110010111100
1111100110100111
1111001100010011
1111100110111100
1111100100010100
1110010010
10101110
1110000010
11101001111
1111100101000000
1111110111010010
1111110110100010
1111110101110101
1111110010111110
1111101110101101
1111110000110001
1111100100001000
1111101011010100
1111110101010011
1111111001110111
1111110101110111
1111110000010010
1111110111111011
1111101101101110
1111111011001110
1111010000
1111111100000001
1111110001110101
1111110100101010
1111101000110100
1111011101010001
1111101101110001
1111010100101000
111111111
1111111111011101
1111110110110101
1111111
1111100001110001
1111101000101111
1111101001001100
1111100110011111
1111011110111011
1111101000101101
1111100001101110
1111100001110100
1111100010011101
1111011011001011
1111100101110100
1111111010110001
1111110110100101
1011011
1111111010111110
1111111100100011
1010111111
1111110001001101
1111100011110101
1111110111001111
1111111110100110
1111101001101011
1111101111001011
1111011000011110
10011010
1111111101111001
1111110000011100
1011010100
1111011010111110
1111011101100101
1111101100001001
1111110011101111
1111101011001101
1111100100001011
1111100111110000
1111110000010101
1111011101101001
1111100100001101
1111101001010010
1111111011110001
1111111111001111
1111000101
1111111101110100
1111111011010111
1111111010010111
1111111011000111
1010111111
1111111111001010
1111100111111001
1001110110
1000010011
1111100101111001
10000100
1110011
1111111010011101
1111110011101101
1111100010100100
1111111011011111
1111111011010100
10100000100
110100011
1111111011000110
1111111110111110
1111111101111000
1111101100010101
1111101111011111
1111111001011111
1111111101100101
1111111000011101
100110000
100110011
1111111111000001
1111111010101000
11101000
1111111001111101
1111111101011001
1111101010100010
1111111010010111
1011101001
1100110000
1111111101011001
1111111110110000
10000001
1111100000110000
1111011011001101
1100110110
1111111010001110
1011010101
10001100001
1111111010110001
1111110001101010
1111110011000010
1111110010110110
1111101101000101
1111110010101100
1111101111101110
1111101010001110
1111101100111101
1111110110001110
1111111100001000
1111111011101000
10101001
1000001100
1111110011011111
1111101011001111
1111110101111110
1101000100
1111111001
10011011
101000
1001001
1111000000
1111101010101011
11100101100
1011110000
1111111111111000
111110000
1111111001110001
1111110111011011
1111110000110100
1111110111000001
1111110111111110
1111110110101000
1111101011100110
1111101100001111
1111101100011001
1000011110
1111101101100010
1111111100101111
1010101110
1111111110010001
1111101100001100
100110010
1111111011110000
1111110110000110
1111110011111011
1111111111010110
1111111110100011
1111111110000110
1111100010100101
10100010100
11111100101
1100011100
110101
1001110
1111111101111001
1110010010
1111110110100001
1010000
1000100110
100010010
1111111100100011
1111110100110001
1111111100000011
1111110111011000
1111101101000100
1111111100001101
1111110111010000
1110110110
10100001110
1111110010111101
1010010010
1100111101
1111110101011000
1011111
1111111110110011
1111111101010100
1111111110111000
10100101111
1111101101011010
1001101111
10010100111
10111001010
11111001001
10100000010
1100001
1111111100111111
101101001
11101101100
10010110011
10110100101
11001000000
1010111101
10011011101
10001110010
11110000001
110011001101
100110101011
100110100101
10011010010
1010011010
10001100
1111111111010100
1111111110000010
1010010
1101001
1111111101101100
1010000010
11110101110
101100001101
111111011101
1110001110
1010111100
11100010010
10000001001
10100001000
101000010000
110000011100
1111110111111111
1010000000
10011010010
1100110
10000010010
1011000101
1100110101
11110100010
1110001110
1111111110111010
101010
1111111110011110
1010110
