1111111110100001
1110101
1111111110010100
1001111
1111111111101001
1111100
10100100
1111111110110001
1100010
1001
1111111110001011
1111111101111011
10011001
111000000
1111111110000101
1111111111010001
111111
1111111101110110
1111111111110111
1111111101011001
0
1111111101011101
1101100
10011000
1111111111000110
1111111111100100
1111111110011100
1111111101110101
1111111101011110
1100101
1111111110011110
1011011
1111111110111111
1111111111110010
100101000
1000001
1100001011
1010011010
10011111000
11001011101
10110100000
11100100001
100011001010
110101100111
101001110101
1110110
101001110
1100101
1111110101001011
1111111000110000
11110010
1000011
1111111111000101
1111011
1010111
100011
1111111111101001
110010
110110
1111110001111010
101100001
1001111110
10011010100
11011110110
1111101100000001
1111011001010100
1111101110100000
1100000011
1111111000010110
1111111001110111
111101110
10001000010
10010000110
1001010100
101001
111110100
1101001101
1111111101000010
10010010111
1010001001
1111100111100111
1111110011011110
10010
1111111101101101
1001011
1111111101100011
1100110101
1111110101101011
1111110101110010
110101111
1111110110101011
11000
1111111010001000
1111111010101111
110011
111011010
101011000
1101011000
110100110
111100010
101101101
1111110101111111
100111111
100100011
1111111010111111
1111111101111110
1111110010111111
1111100101010111
10100111000
10000010000
10010101001
10101001
111011
1111101110001000
1111110111010100
1100101101
1111111011000110
1111111001110100
1111110100010101
1111111100111010
1111110011010001
1111110111001011
1111111001101101
111001
1111111010010001
1111110100111001
1111111110100111
1000100100
1111111101011110
1111110011110011
1110011101
111110000
1111110100011111
1011001101
10000101001
1011111101
1001101011
10001001111
11111101101
1111101111000011
10100111
1111111101101101
1111101010111001
1111100111101100
110011010
10100101000
1111111110110010
1111110111100011
1100100011
111100000
11010111
1111111111110100
1111111101000001
1111110100010110
1111110111110011
1111111001001111
1001001
100111110
0
1111111101011010
110010001
1111111110100000
1001001010
101111100
1110001101
1111111001001100
1111111111011101
1110001010
1111111111001010
1111111111001111
10100101011
1111100110110101
110101110
1111110110010000
1111111000001000
1111111100010010
1010111000
1011110100
1111111100010111
101100011
10010111
1111111110110110
1111111111100010
1111111110001000
100100001
111001110
111000001
10010010001
111000101
1111110100
11101
1010010001
10011110110
1111111101111011
1000010101
11000000011
1111111111111001
110111010
10000111011
1111111001100111
1111110011010000
1111111000101110
1111110011101100
1001000
11110
100101010
1100010100
101101011
10111010
1111111110000100
100000111
100001011
100011000
100100101
1010111100
1000101001
1111111111
1101110001
100000101
1111110110000101
100110011
11010011001
110011101001
1111001111
1111111111011101
1110101001
100111010
1111110010101010
1111100111000011
1111111001100101
101000010
1111111010101100
1001
100000001
1011001100
1011101110
11111011
1111111011110000
1111111100111110
11111
10011001
1000110
111001111
1000110011
100010010
1001010010
1111111011111011
1111111010011010
110101100
1111101100101011
10111000011
11000011011
1101110
1111010101
1111011011001010
1111111011000111
1111111000000011
1111111001111111
11011010
1111111010001000
10110110
100101110
100111001
111001001
1111111100100001
1111101110100100
1111011000101101
1111010110010110
1111001101010110
1111001001100001
1111000111100000
1111010100010100
1111010010100001
1111101101011011
1111110100011010
1111111001100000
0
1111110010101101
111000110
11110000111
1111111111001101
1110010
1111101100000101
1110010110
100111101
1001011101
1111110010010111
1101011
1010100011
1100110101
1111111111110100
100110110
110000010
1111101110100101
1111100101001011
1111010100111011
1111010000000011
1111011000111000
1110111001010001
1110101011100011
1110011100101111
1111001111010010
1111010001000111
1110110101011001
1111011010111010
1111101011110111
11111011001
1111101100
1111111011000000
1111011010101010
1111111000000111
1111110100101001
111010000
110100100
1111111110001100
1111111100111100
1111111010101011
1000001100
1001111
1101011
1000110110
1011110100
10101101
101101011
10000010
1010111011
1010000
1111111110001010
1111110010011111
1111111011001111
1111010000000101
1111011001000110
1111000000100000
1111100010100110
1111111001000111
11011000010
1111111010110111
1111101000000100
1111111000110011
1111101110101011
110001
1111101110001111
1111111111101011
1111111111000101
1100001010
1111111100110000
10010100
111100000
10001101
10111110
1111111010000101
1111110001110111
1111110101101100
1111111011000110
101011011
1111111111001110
1001011110
1010110010
1111101000110001
1111101101111101
1111110101000000
1111101011101110
10011110
11001011011
101111100
1111111000010110
1111111101101101
1111110000110001
1111111101101100
10000011
100011100
100101111
1111110011001000
10101101
1010011101
101000000
1111111101001000
1111111111110011
1111111100100000
1111110000100011
1111110000110011
1111111010000110
1111110110000110
1111111000011001
100010011
111110
1010011
1111110101100010
1111111111100100
1111101110000101
1111011111001100
1111110010010010
10000010010
1111110100011100
1111111010101010
1111011101111101
1101111011
1111111100101010
10010111101
1010110000
1111111110010001
1001010010
1000000001
1111111000111010
10001101
1111111011100101
1111111101010111
1111110110110010
1111111000111010
1111101111110000
1111111110011001
1111110111001011
1111111110100000
10100001111
1111011101
1010110001
1010011111
1111100110101110
1111001011101100
1111101011100010
1100111010
1111111100001110
1111100111101001
1111110010111101
1111010110000001
1111101001000010
1111100111000001
1111110101011100
1111111101110010
111100101
111100101
1111111110100110
1100011
1111110110110011
1111101111101011
1111110010010011
1111111011000111
11111110
110011110
1111111100111010
101000111
1100010010
1111110100111100
1111011
10010001001
1111110101001000
1111011011011111
1111101101001000
1111111000100000
1111111110100110
1111101111000110
11011
1111011001101110
1111101011101100
1111011101100011
1111101010100110
1111101110011001
1111111100100100
111011011
1101111100
11101011
101001000
1111111111010010
1111111111010110
1111111011100010
111011010
1111110100110000
11110011
100001
1010100000
1111111111001101
1111111101111110
1111111010111100
1111111100100000
1111001111110110
1111101110001100
110001
100110011
1111100011010110
10100110111
1111101100011101
1111101100001011
1111111000100101
1111110001100000
1111011101001101
1111100001001001
1111101100111010
1111111011111010
1111110101101000
1111110111011101
1111111111110000
1111111011100110
1111110010001101
1111111000010001
11110110
101101100
111000
101110101
1111110101101011
1111111111000110
111101100
1111111011110001
1111101000101001
1111100011000101
10111010
1111110101010001
1111110000110001
11100111011
1111111011101010
1111111111111100
1111110111011101
110000110
1111100111010000
1111100111011111
1111100000001011
1111010010011011
1111001100111010
1111101000110001
1111111101111111
1111110011011100
1111110101011111
100001
1111110100110100
1110101
100110000
11000100
1111111001001011
1000011010
100000
1100011
1111101111111111
1111100111000100
11101100
1111111110000010
11101111
100000111111
1111111110000000
1111111001000001
1000000001
1111110010110111
1111111100000110
1111110110101100
1111110110110100
1110011
1111111101110011
1111110110110011
1111111001000101
1111110101001000
110011010
1111111110001011
1111111001101101
111000010
100000
101101100
1011001
1011100001
11110010
1110010110
1111011010010001
1111101110001111
1111111110110111
1111100011111011
1111110100100111
111101000
1110111101
1000100100
1111111111110101
1111110001101110
1001000010
11000011
11111101
101011101
1111111100011101
11011000
1111111011110101
1111111101000011
1111111111011100
111111101
100110111
101001001
10100011
100111001
11000101001
1111111001100101
1101101
1111111000111001
1111100011111101
101101010
11111010
1111101010101100
1111011000101011
10111000
10100110010
1100101010
100001
1111001010
1001000110
110000101
1001101100
1101100001
1100011010
11000010
1011111010
10111101
1111111111110000
1111111000110001
1111111111101100
100000111
110101101
1111111111010110
111100000
1000100001
1010111111
1001010011
1111110000111011
11011101
1010
110101
1111110010110011
10110010
11
1111111101101100
1111111110000101
1101
1100100001
111101010
1100100111
1001101100
1111111001100100
1111110111000110
1111111110011111
1111110111100010
1111111010101011
101111
10100
101100100
10011000
1111111110111000
1001111111
11010101000
1111111000011110
1111101010101101
1011001111
1101000
1111111101010110
1111111101101110
1010101111
100001010
110100011
111100101
1001010010
1111111101001011
1111111111110100
110101000
10000010110
1111111010011010
1111111100100000
10001000
100011000
1111110111001101
1111110111110100
1111111011011110
1111111101110100
11011001
1001010010
100010
10010111
1011101
1111100101101001
1111111100010000
111110011
1110001
111110
10101110
1111110010100100
10000110110
1100111100
10100101100
1111110110000100
10001100111
101111
1100111110
10101011
1111111110111010
1000101001
10101110
1111111101011010
111111
1111110010111101
100100001
1001110110
1111111100011110
1110111010
1111111110011110
1101001011
1111110111000011
1111100110110001
1111010111001001
1111101100101001
1111111111101110
1111111110111001
1111111111011010
11000111100
100110111011
11011110100
1110000000
1100010000
10000001
100001000
11010000100
1111011
111100
10010010010
1111110101
100010011
1010010100
100100
10010111
110011
1111
1111110110011000
1111110010010110
1100001010
1001000010
10100011110
110001000
1111111010010000
10011011
1010111
11011
1111111110101000
1010110110
100001011001
1111111000100001
1111111111000111
10100110001
1111010010
11010100101
110101110010
110001100000
101000000000
101000001001
100101011000
110100010111
10111011111
1111111101010011
1111111011001111
1111111100010110
111010010
10000101111
10011000111
11000010100
1111111111011101
1111111110111011
1111111101111010
1111111111101111
1111111110111011
1111001
1110101
10000110
1111111111110010
101000001
1111110
1011101111
1001011100
1110110000
101000011111
11110100110
11000101001
1111111011111110
110000010
1111100111000100
1111101100001010
1111111011000001
1111111110010011
1111111001010010
11110011
11011
1111111111011001
10010110
1111111111010111
1100000
1111111110100011
100011
