1111111101111111
1111111101110010
1100101
1111111111110110
1111111101100000
1111111110000110
1111111111101001
1111111110010111
1111111111011101
1111111110001110
10
1110000
10100110
1111110101011101
1111110001110010
1111111110100100
0
1111111101010100
1111111101010101
1111111101100011
1111111101101011
1111111111011011
101001
10001011
1111111101100100
10011111
1111111110011100
1111111111100001
1011101
10010
1110010
1111111111111000
1111111111000000
111000111
100110011111
100101100010
1010100100
111000001
1001000000
1111111000101111
1111111100010111
1111110101100100
1111111101101101
1111111000100110
1111100010111011
1111101110010011
101100111100
100101000010
100110000011
101000000110
11110100010
10001111100
1111111110100001
10011000
10010000
1111100
111010
1101110
10100010
1111110100110110
1111111011011110
11101100
10011010011
100000000001
1111100001
11101100
11000110001
11101011110
100111101
1111111100011000
11100101
11101000011
1011111010
1111111100101011
1110111110
1010111000
1000101
1100011011
1000110110
1111111001111011
101100110
1111111010011101
1111111110010001
1111111111111110
1111111101011010
1111111110000110
10011001011
10110000111
1111110011000011
1111110001110101
1010010110
10001011100
1111101110101010
1111110010100011
1111100001111011
1111100010001010
1111101011111010
1111111001100111
1111111101101101
1111111101010001
1111111010011100
10101100
110010001
1101110001
11001110
1111110111011101
10000011001
1001111010
1111111111000111
1111101000111101
1111111010010110
1111111110001111
111000
1111111111011111
1010101100
10000100110
1111110011100011
1111111011000000
1111100111100111
1111111100110010
1111101100000111
1111110010000111
1111110000010101
1111110010110011
1111101101011101
1111111110011111
1111111100101111
1111110100110000
1111111110011010
111111110
100111001
1111111100111101
110111001
10011010
1111111111111110
10001010010
1111111101000101
1111101010000110
1111100111001101
110110001
1111111110000011
1011110
101001101111
1111110001100010
1111101011011101
1111110101001010
1111101111110010
1000000011
1111100100111011
1111100111001111
1111111001100011
1111111010010001
10011011
10011110
1001101010
110011010
110010001
1011010110
1011
101000
1000101
110000110
1111110101100110
1011001110
1110000111
1111111011101101
1111100110001011
1111111100101011
101100
1111111111000100
10001000001
1111100100111100
1111011101100100
1111101110110101
1111110110011100
1111101100111010
1111100011001110
1111101010000011
1111111010111110
111011100
1111111111110100
1111110111101001
1100111
1010100001
111110000
1111111111011000
1111111101001111
1111111101000111
1111110000101000
1111111101101111
1111111011111010
111011011
1110001001
101100011
1111110010101001
1111110001111100
10100101
1111111111110111
1111101100110111
1111110001110000
1111110010111010
1111110000110100
1111100101001110
1111101011100110
1111101001000010
10010110
1010001100
1011110100
1100101001
111001101
10110010000
1101010011
1111111110100100
1111111011000000
1111110010110001
1111101000101000
101110000
1011101100
1111111110111101
11111000
1010011000
1111100111110111
10101011100
1111101010111000
1111110001000110
1110010101
1111011011000100
1111111101011001
1111101010101111
1111011001010010
1111100110010100
1111101011111111
1111110000110000
1111101100110001
1111111101100000
1111110010001111
10011001
10010100101
10101000011
11010110
1111101010101111
1111110001101100
1111100111000011
1111101101110110
1111111001101111
100010001
1111101111010011
1011010
1111111111001100
110010001
11111010001
1100
10110001
1010110010
1111011101111101
10000100110
1111101000010000
1111101011000111
1111100011101000
1111110100011000
1111101110100101
1111100111011001
1111110010110100
1111101110000000
1111111010110101
100111101
10001011000
101100010
1111100101001100
1111100000000111
1111000001000111
1110110010001011
1110111000110100
1111010110101111
1111000100101100
1111000111010000
1111101001011011
11100100100
11000100110
1111111010001110
11110100
1101100101
1111111111101111
1111101010100101
1111010010111000
1111011111101111
1111110101100000
1111111100011100
1111100111101101
1111101111101011
1111110011011010
1111111010101110
1111111000000000
1110010101
10011001101
1001001011
1111101001101000
1111100101001111
1111001011010000
1111010111010101
1111001011000000
1111001111111101
1111010010001111
1111001001001000
1111010011101101
1111111010010010
1111110110110000
1111101100000000
1000000
1111101010011000
1111101111010001
1111011101100011
1111101110011000
1111111001010111
1111101111001100
1111111110010101
1111111100110001
1111110011000101
11011000
111100010
1111110011001010
1111111011110100
1110000010
101010000
1111111000000110
1111100101011100
1111011100010100
1111111101001100
1111111011001111
1111110100010000
1111101010100111
1111111000010011
1111100010101010
1111110001110101
1111101010011011
1111110001111001
1111111101110100
1111110100101110
110101101
11001100
10101011101
111101000
1111110011000011
1111110111000100
111111001
1111111110011100
1111111101111101
111110111
1111111101011111
1111110110001101
10000100001
10100000101
1111111110000110
1111111100101010
110010000
10011100
1111111100000111
1111110001000101
1111110011101110
1111111010010000
1111110001110100
1111111100101000
1111110101011000
1111111101010111
110111010
1111101011000000
10000101010
10001111101
11001000100
111100001
10010000
1111111101001011
1111111100110000
111101001
100001111
1111111100111110
1100011
11000101
11010000110
10110001000
101011001
1111100111110001
1111110110010110
1101000010
1110001001
111000
1111111000001011
1111110111101101
1111110100011111
1111101100010110
1110
1111101101011101
101010101
1111111000011111
111111010
10100000100
10000110100
10001010101
10110011100
1010011111
110110100
10000100011
1111100
1111110011111100
1111111110101010
1100101001
11000001010
1011110000
111100110
1111111001001101
10110110
110011110
10011101001
1000010100
10001011011
1111110011000100
1111111101011010
1000010011
1000001111
10100001000
10100101
1111111001000001
10000100101
1111110111101010
1111101001110110
1010001000
1111000000
1001101101
1001101101
10010111001
1111111001000111
1111111110111110
1111111001100010
1100010100
1101101010
1111111101011010
110100010
1111111110010011
11001001
10110100111
1100100011
1001101111
10011000110
1111110110011110
1101110001
101110000
1111110111011000
1111110011001000
110111001
1100011110
10110011011
1111101011111001
1111111100101011
1110011
10011001111
10000110100
0
11100
1111111001110001
1111111110001000
1111100101100011
10110110
1010100001
1111111111000110
1111111100001100
1111111000010101
101001001
111000
1000000001
10000011
11001010
1000000111
10110000100
1111101001111101
1111110110101011
1111100010001111
1111111110001010
10110000110
11010010010
1111110100101010
1111110001110010
1101111100
11111010
1111111011110000
100010000
1111110111011111
1111110100110011
1111110101010111
1111101010101101
100
10001111100
1010101101
1111110100011100
1111111001110010
1111110111000111
100100010
10011010110
1111011100
1110101
1110100
1010100011
1111110101101010
1111110110101000
1111100110101000
1111111100110011
101101111
1111001110
1100101100
1000110
1111110111001111
1111110010000101
1111110100011110
110000100
1111110100110101
1111111011100101
1111110000100100
111111100
11000011100
10110111111
1101101000
1111101101111010
1111111101001001
1111111100001000
1001001
10011011100
1111111110111000
1111111011001000
1111110101111000
11110111001
1111111110000111
1111111110110110
1111110110101111
10000110111
1111111110010110
101001001
1000101100
1111110011110010
1111110111000001
1111111010101010
1001011101
100001011
1111111111010011
1111110110101100
1111111111101000
1111111110110101
1100111000
111100110
1001011100
1101010
1101010
1111111011101001
1111111111001000
1111
1111111100100100
1111110011111000
101000110
110010100
100011100
1111111000110100
11111010
10000
1111101000010101
111001101
1111101100011110
1111111100111001
1111111110100110
11011
1111101010000011
1110001
100110110
1111101110111101
1111111110000000
1111111011000000
1001001
1001100000
1110001101
1101111
1111111011101111
1111111110001101
1111111111010010
11110010
1111111111100011
1111111110010111
11110101
1111111001010011
1111110000110111
1110010001
1101101000
1011000011
1111111110011010
1111111000100110
1111110010010111
1111110000111001
1111011000110100
1111111101111111
1111101110010011
1111101101000010
1111111010110100
1111110110110100
1111111100110111
11011111
10000000010
1001100000
1011111
1111111111011010
1111110101100010
1111111111011010
100000100
1111110111111110
1111101110110001
110100
1111111011010111
1111100111011100
1111101011111000
1111110001000000
1111111101100010
1001111000
1011000111
11110000
1100010011
1111111011001101
1111011100001001
1111111011101010
100100011
1111111011001011
110110
1111111001001000
1111101111000010
11000
100101011
1111111111100011
10000001011
1000011101
1111111101000111
111100011
1111101011
100010010
11010
1111110001001100
1010000110
1111010101101000
1111101001101111
1111110100000011
1111110111111100
1111001
1100001
1111111010111001
11100000100
1111111110110110
1111100100000111
1110101100
1111111101010010
1111101011010100
100111000
1111101111100001
1111111001000100
1000111110
1111111000111111
1111111011011010
10000000
1111110111110111
101110011
1000100110
1111110010000101
1111110010110111
1111101111010000
1111110111110111
1111001011101101
1111011010001101
1111100011011111
1111111010110100
1101111
1111111101010011
1111111101110110
100001111
1111111000100000
1111110001001111
1111011100000111
10111101110
1001000011
1111100000100111
1000110101
1111110110100111
1111111111111000
1111110000010000
1111010100101101
1111011010100001
1111100011011001
1111101011010101
1111111010010010
1111101111101101
1111101001101010
1111101110011111
1111101110110110
1111100011111011
1111100100110111
1111100000101001
10100000
10111010011
1111111110001111
1111111110110001
10010010
101000
1111111001010000
1111100001000010
1111001111101000
1111110111100111
1111011101101100
1111001011010101
1111101011110111
1111010010100100
1111100000100101
1111001000101000
1110111100000011
1111001011011000
1110110100011100
1110110000001110
1111001001010101
1110110100000110
1110111111101100
1111010010101011
100001100
111011111
1110011011
1111110001110110
101100011
111001001
1111111111011001
10100111
1111111110111100
1111011
1111111001101110
1111101100100101
1111110011000000
1111111100011110
1111101001101011
11101001
1111110011011010
1111101010111100
1111010110011010
1111010011011010
1111001111011010
1110110000111101
1110111101111010
1111000010111011
1110100111001111
1110101100111011
1111011010000100
1111010001010001
1111110011011001
110110001
1111011110011100
1111
1111111110101101
10000101
1111111110101010
101111
1100010
10110
1111111101101010
11110
1000001
1111111000000001
1111111011001110
1111111001001101
1111111010001100
1111101000001011
1111100110011000
1111101000101100
1111100010110110
1111001111000001
1111011010111010
1111100011111100
1111100000010010
1111100000010111
1111100010011100
1111111110010111
1101001010
10011111100
111011000
1111111111111000
1001011
0
10010101
