10011101
1111111111100011
110011
1000010
1111111101011010
1111111111111100
1111111101111001
10
10101111
1111111101011111
1111110
1111111101111101
1111110001100000
1111101000100111
1111110011100111
11101
10101110
1111111101100011
1110110
1111111111111111
1111111101010110
1111111101100101
1111111101111000
1000100
10100010
1111111101111111
1111111101111101
111110
1111111111100011
10001
101001
11100
1111111001100001
1111110101010001
1111011111100101
1111010111110001
1111110010001010
1111011101101011
1111001111101110
1111011111110000
1111011010111111
1111010100000010
11011100100
1111110100110110
1111110001101111
1111011110000011
1111100110110001
1111100001101101
1111100011111100
1111011010011101
1111100111001111
1111110010011010
1111111110111011
111010
1111111110101110
10000011
11011
1111111101110010
1111111000001011
1111101010110010
1111101001110001
1111100100100010
1111100100100011
1111001111100111
1111101111101011
1101010011
1010100100
1111110100001001
1010111111
10011011001
11011110001
10001110101
110011101
1111111110110001
1111110101101011
1111011100101110
1111110001111110
111111011
1111111001110000
110001010
10000100101
10000000001
1010011
1111111110100110
1000010
1111111111000000
111001101
1111101111001000
1111100110111101
110111001
1110101001
100110110100
110100001
1010100100
1100000
1000000111
10001111010
110111101
1111111110011100
1010101100
110011100
1111111101100000
1111111010101110
1111110000010110
1111110000011010
1111110011000100
1111101011010011
1111101000100101
110100001
10011101010
10000010111
10100011
1111111111001000
1000010100
10011111100
110111101
100000100011
101101111
10001100
10001001
1111001001
1000100
1100010100
1100000100
1000110100
1101011
10110
1111111001001101
1111111010110001
1111101111100101
1111110001000110
1111111011010001
1111111010000111
1111101111110100
1111101111100000
1111011101000011
1111111000010000
1100001000
1111111111000011
1111111101100001
101001
1111111111010011
110111001
1101001011
100100101100
11101001010
101111011
10001101110
10100011111
1011001001
10001000110
1011110111
1000000010
10101111
1111111001010001
1111111111010000
1001110
1111110100100101
1111111000101110
1010111101
10101111
1111111111100001
1111101010011001
1111110100010111
1111100000110010
1111111101000001
1011011001
1111111111110011
1111111110010010
11010
1101110000
100110011110
1101010011
1111101001
1101100110
1110100
1100101001
1110100001
10111101011
1110011110
1101110110
110110010
1111111111000011
1111111110010000
1111110111101111
1111110111110100
1111111010111010
10000010
11001110
1111101101110001
1100000
1111110110001111
1111100010101101
1111101100010110
1111111100100001
1111111101100011
1111111010101001
10010110
1101011111
11010101100
111111100
1100001110
10000100100
1000000000
1101111001
10010011110
1001000010
1100110100
10111010001
1111101010
1110100001
1111
1111110001100011
100000
11001101
101100011
100101011
110100000
1111110101110100
1111110101011111
1111111010111010
1111001000100000
1111100011101000
1111110100111111
1111100111101101
11100001111
101110111
1111111111100011
1111111100010011
1111111110011111
1111111011000100
1111110111110001
1100111
1101111110
10000000101
10011110101
11011001010
11010101110
11010100011
10000000011
1111111000110010
101000011
1001111100
1101110111
1011011
101001100
10000001
1111101001101011
1111110111110111
1111011101010100
1111111010111111
1111110110000110
100111100
1111110011011001
10011111001
1001011000
10000111010
1111110010011001
1100001
1100011
1111111010111001
1111111100011100
1111110010010011
1111111001011101
1111111011101111
1111101111110110
1111111110111011
1001001101
1001101110
100110110
1101100000
1111111110111011
1111110100010011
1111110010100000
10101011
1111111010001010
1111110000010010
1111100110010010
1111111110000011
110000010
110010100
1111100011010011
10110001100
1111111000010010
1111110011110001
1111100110111010
1111110110111111
1111100111000000
1111100001101001
1111010011011111
1111010100011110
1111010001101101
1111001011010011
1111100001000011
1111100010010100
1111101101010100
111000
110110000
11000110
1111111011101101
10111100
101110000
11000011
1111110000001010
1111011110000111
1110111011
1111001001
1100101010
1111111111011000
1111101011110110
1111101000001011
1111100100001001
1111100011110010
1111001111011001
1110101111110010
1110101101100011
1111000101111101
1111001110111010
1111001111001000
1111100101111111
1111101011001000
1111100100000101
1111100111111100
1111110100000011
1111111011001101
1111001
1111111010001000
1111111110111011
1111111110010000
1111110111101010
1111101101101111
1111111011111000
1111101110100111
1111110111011100
1111101001000111
1111110111110101
1111111100111110
1111101011001111
1111110100000010
1111101110011011
1111100001101111
1110110011001100
1110100110001000
1111001110011010
1111110101000010
1111101001011110
1111110101111110
1111110111111011
111010010
1111111000011111
1111111101110000
1100100101
100100111
1111111001010111
110110010
1111111111000111
1111110010111101
100100011
1111110010101101
1111111001101011
1111101100
1101000001
1110001100
1111101101110110
1111110010100110
1111100111000010
1111101001000111
1111101111010010
1111010101100111
1111001000001111
1111101111110010
1111110111011011
1100000000
10010111101
10010011100
1110010001
1101110
1111111101000111
11011000
1111101111100110
1111110000101101
1111111110111100
1111111111001100
1111110111001100
1111111101010011
101101001
111011
1111111100100110
1001100000
111011011
111010110
1111110011010010
1111110101110011
1111101111001111
1111110011010110
1111110100000010
11111010
110110
10000010100
1110011011
1110000001
10101001111
1110100010
1100010000
11110000
1111111010001100
10001001
1111110101000011
1111111011010000
1101011
1111111110111001
1111110111001000
1111110111011011
1111111100010111
110110101
1111111011100000
111001111
101001011
1001111101
1011000110
1111110111001111
1111111101100001
1111111010010010
1111111101010101
100101101
10000000101
11100001101
1111011000
100100001
1000001001
10100100
1101111
1111110101111101
1011001
1010100
101100
10010
110000010
1111110010110011
1111111010100011
1101110
111110010
1010001101
10001111
10101110
111000101
100100100100
1111111111010111
100001110
111100011
10100011010
100011001
10001001100
10100111000
1100111100
1111111110011000
1111110011010111
100101110
10101
1111100110000110
1111101010010011
1111110101000001
10
1111111010100101
10011011
1111111101100011
1111110110000011
101001010
100001110
1001111
101011100
1111111110001001
10001000011
11011000
101110100110
1111111110000001
111000
100110100
10100100111
1111111001101011
111101000
101111110
11110011
1111110101110101
1111111011001110
1111111001101100
1111101111101100
1111101100111001
1111101101000001
1111110111001101
1001110100
1111011110
1111111110011101
1111111011011000
101000100
1111111110001010
100100111
1111110100100001
1111110011100101
10110
1111111110011100
10001110100
11101110111
1111110001011110
110011
10110110010
1101100110
1111101011
1111111011001001
111010010
111011110
1111111110011101
100010111
1111
1111110100010000
1111110110011000
1111111110101010
1010111000
1110010110
1101100011
1110001111
10010101010
1101001110
1111111111111100
110111111
1010000010
10010101
1111111001011101
1111111010100101
1110100100
1101011011
11011111001
1111111011110100
1010000101
1111111011110000
1000001000
11101101
1010111
11110101
101100100
1111111110000011
11010
1111111001111100
1111111101110110
1111101111100100
1111101110011110
11110
1000010011
1010110111
1010101
1111110101001011
1111110100000100
100110
1010000110
1011111011
1111111111000110
11010100
100101100100
11110011111
1011110001
1111111110001111
1111110100011101
1111110000101100
110010010
100000101
1011001110
1101011000
111100110
11100110
100
1111111100101000
1111111001110011
1111101111101101
1111110001011110
100111011
1111111111011100
10001000
1111111110100001
100111011
1111111111101001
1001001
1111111100000011
100001001
110000100
1011110110
1100110001
101010001110
1111111110011111
1111111100100111
10001110100
10100100111
1101010
10100101
1000001011
111001110
1111111100000101
1011111
11001111
1011000
1111110010010110
1111110100110100
1111111011110110
1111111101011101
1111110101110111
1111111101011001
1111111100110001
10001010111
10101010
1111111000000111
11110011
1111110010000011
1110100010
11001
1111111010110100
1111100110001011
1111111001101011
1111111100011000
1111111100111111
101101100110
1111111111100000
1000100011
1111111111010100
110000001
10011110
1111111011101011
1111111011001101
1111111010000100
1111110110011100
1111111100110101
1111111101001101
1111111011011010
1111111010001111
1111111100101100
1111111010100000
110010
110100011
1001100101
1000001
1111110111110010
1101100011
100100111
1111111010001000
1111100100110101
1111110100111110
10010001
10010100
1001000101
1111101100001010
1111101111110001
1111111111011100
100010100
101010110
1111101111110010
101100110
1111101101000010
1111110101001010
1111111011110000
100100011
1001000
101010010
1111111110111110
1111101100101110
1111110111111001
1111111001111011
1111110000011100
1111111110001011
100101001
1000001010
1111111110101001
110
1111110101110110
10
1111111110101101
10111
11000000001
10110000100
100101100
1111111100000010
1000100
1110110110
1001010111
1111111101111010
1111111101011011
110100110
1111111111001011
11110100
1111110111110100
1111110110110110
1111110000111010
1111110010010011
1111110011001110
1111111101111001
1111110100111001
110101010
1111111111010110
1101110010
11010000001
1110010110
1111011011
1111111111000001
1111111101111001
1111111111111101
1111101101111011
1111111001110100
1100101001
10001000110
101100100
1011001110
10011101
10101111111
10001101100
1010001000
100101001000
10100001011
1111111011111110
1111110111010110
10100000
1111111010000101
1111110110111100
1111101101100100
11000001
1111101011010010
1111111000100011
1111111000001100
1111100101101000
1000000001
1000110101
1111111110100111
1111111111111111
10010011
1111111101010111
10110000
1111011111011001
1111101110110010
1111111001011010
111011010
10000100000
1101001000
101001110111
11111101000
11101010111
110100011
1111111111001000
100001000111
100000000001
111110111
1001100000
101110101
1111110111011110
1111011111101010
1111011010101100
1111111101011110
10001
1110010
10101000
1
10011
1111111110110110
1111111110110011
1000001
101010011
11000001
1111110111010111
1111111100000001
1111110000111111
1111101110101101
1111110010110001
1111101000101110
1111101000010111
1111010111110100
1111101000011000
1111101000001001
1111100100100010
110110100
1111111100111100
1111101011101111
1111110011010011
1111101111000110
1111110000001111
1000110011
1111111111110001
1111
110
100101
