1100111
110110
10
1110110
1111111111100110
10011110
1001110
101001
1000
1110
1000011
1111111101101011
1111111110111001
10011100
10111100
10100001
1111111111101111
1001001
1000100
1010010
1111111110110110
1111111111001101
10010000
10101000
10001
1111111111100100
10000111
1111111101101111
1111111110101011
1111111101101111
111
1100111
1111111111011010
110010000
1100101110
10101100001
11000011000
10010101110
10011110101
11010000101
10111011000
1111011000
1111111110110000
10111010101
100101100000
11011101100
1011110011
1100011001
1100101101
11111001
111110100
111011010
1101111
1111111111010001
1000111
1111111111101100
10001111
1001111
1111010111
100111000
10000001111
10010011100
10100011110
100011101111
111101100
10101101110
11001001010
11011001011
100000101
1111111110110111
1111110100110101
1111111000011010
11010110011
100101111011
11100101101
10001100
100010011110
110000110000
110000110111
1111100000
101101000
10111011000
10100010
1111111111100000
1111111110010110
1111111101110001
1010011110
1111011000
11010101001
11000110110
10101001111
111000110
1001110111
11001101000
100111100
1010110
11111101100
10001101111
1100010110
11010110010
11111001111
10110001000
11011100001
10111111111
10100101010
1011101011
1101100101
10011000010
1111000111
1111111111100000
1111101011010111
1111111111110101
1111111110010001
11001110
1010011010
11010111000
1001001100
100110100
111010101
10101111000
11101001110
10001110110
10011111100
1001111001
11110010
1111101101110100
110110110
10011111001
10000111001
1110101001
1111111001
1111111111000110
10101100
111011001
1001110010
1111111110001111
1111111011001010
1111101011110001
1110011111
10000
1111111110011000
10000111
100010010000
11000000001
110111
1111100011011101
1111111010111010
1111111101000000
1111101001111101
1011110101
1011110000
1110000001
10001101010
10000101100
11010011011
11000100001
100100010101
1101101001
1110110101
100110101
11111000
10101010101
10010110111
11100110
10100111
1111110000110010
1010111000
1111101001101101
10101000
101010011
111101011
1111100
100101010
1111101110011011
1111101110011010
1111110100001100
1111110101100000
1111111010011110
1100111100
1110000111
1011100001
110011101
1011010011
100011010
1111111110001110
1111111001011101
1001101101
1001101010
1010000010
101110
11010110
10010000100
1111101000
1111110011100000
1111111100000100
1111111111111101
1111111100111111
1111101111100011
10101000
1111101110101011
10011001
1111101111001010
1111101111100010
1111111010000111
1111110100011110
1111111001101011
110010
111001111
1000100110
1000000000
10101110111
11000000
1111111110111010
1111111000110001
111111011
1001111101
1111111011101100
110010000
110100111
1111111110100111
1111111010110110
1111101110101001
101001101
1111111010110111
10101100110
1111010110010001
1111111001110111
111011011
1111001111
1111110101011000
11100110
1111100010
1111111110111111
1111111010101010
100000101
1111111111100011
1011110001
11000011110
10001111110
100001110
1111000110
1101001001
1110010
101001010
10001000
1111110001110001
11001010
1111111011110000
1111111011010001
1111101110111010
1100110010
11011000010
1111111010110010
1111010101101111
11010011
111000101
1111111110110010
10011011
1100100001
110001000
1111111000010101
11000100
1111111100101110
1111110010001011
1111111010010001
1001000000
11001
1111111100100110
1000100111
1011101110
1111110110010101
1111110111011111
1111111000001001
110101110
1111110101000001
101101000
1001011101
10101010000
11110011
1111100111010011
1111111000111100
1111011000011001
110010000
1111010
1111111001001101
1111111001100010
1111110111001001
1111111101110001
11111
10111
10110101
1111110110111111
1111110111110011
1111111001100001
11100111
1111111111110100
1111111011101111
10010001
110011011
1111111010110010
1000000010
10000000011
1110000110
11001111111
10100011001
1111111010101001
10001000001
1111110110010010
1111101111000110
1111100001
1111011110111001
10000000
1000001010
1111110110001101
1111111001011000
1111111010111101
110000001
111000111
101110110
1111110011110101
1111101010111010
1111110001100001
1111110000011110
1111101010010011
1111100110100110
1111101011111100
1111110110011111
1111110000110001
1111110111000101
1111011
1001100011
110110000
10101010001
10001110011
110001000110
1101110110
1111110001100111
1111100110011010
1111000111111110
11110010000
1111111101010010
1111110000001010
1111101111101001
111000100
10
1010001000
1111111100011000
1111111110001100
1111110111011000
1111111001011101
1111110100111000
1111100110000000
1111101100000011
1111110100111110
1111011101101110
1111011111000100
1111110010100101
1111111001000010
1011100001
1111111111110010
111001101
10100000001
1111111010001000
1001010
1101111111
1111110101011100
1111100000111111
11101010011
1111111111011011
100
1111111001000001
1111111100001111
1111111111011001
1110110
1111111001101101
1111111011010110
111010101
1111111011100111
1111111110101001
1111111010101001
1111110000010110
1111101100000000
1111100101011110
1111111010010101
1111111001100011
1111110001111101
1100000001
1011110010
11010011
111001001
1111110100101010
10101111001
1101010000
1111101110010011
1111101011101111
10010001011
10011000000
10100011
10101000
1111111110001010
1001110000
1111101111110111
101000
110011010
1111111000110100
1111110011011110
1111110111111001
1111110011011100
1111100101001111
1111101111001010
1111111110000000
1111110011010001
1111100111101000
11101
10001101
1111111110011100
1111110100011100
1111101101101110
10011111101
1110101000
1111111000110011
1111111000101100
1100000011
1000101001
101111110
11001011
1111110011010101
11100011
110010111
101000011
1111110000111100
1111111111001111
1000111011
1111111110000001
110110010
1111101000101001
1111110000000000
1111111010110101
1111110100000001
1111110111111011
1111101110001011
1111110110110110
1111110001010010
1101100
1111111110010011
1111101111000111
1111110110101110
1111111100011100
1111101011101010
1010110010
10010111101
1001011011
1111011100010111
1111111011110111
1111100000011101
1111110010110001
101110000
110010101
1111111111101101
100011011
1001100000
10001000110
1111111001001010
1111100110111010
1111101010110111
1111101110111110
1111101101100001
1111110101011101
1111101100111001
1111111110000011
1011010011
1010100
1111111010
1101110011
100111101
11000111
10010001
100110010
1111110100111100
1111110100010101
1111100101011000
10110010
1111101011000100
1111111100001101
1111110101001010
1111110111001110
1111111111000110
1111111100000100
10110100
1001001
1111101011111010
1111011011101100
1111101010111101
1111101101010111
1111100110010011
1111111111001100
1000001100
1111110101100110
1001101010
1111110000101010
1111111111011011
1111100001010111
1111100101001110
1110010101
1111110101100010
1111110100010100
1111111111110011
1111110001011100
1111110011111010
10111100
110110001
1010000
1111110110011010
1111101101101001
1111110000111011
1111101101011100
1011010
1111110100111011
1111011100001000
1111100010100011
1111011100010111
1111101100110011
1111111100001111
1111111010111001
110011111
1111110100110101
1111110010110010
1111110101001000
1111110110100001
1111111110110010
1111100110011011
10010100001
1010100101
1111110011010001
1100001000
1111101101010101
1111111011010010
1111111011000011
1010001011
1111111100101011
1111101101101001
1111110001000001
1111101010001001
1111100110101011
1111110111101111
1111111001111011
1111100100100110
1111111000000010
1111101101010101
1100011110
11101100110
1111111101101110
1111111001100000
1111101100000000
1111111111010111
1110010100
101100
1111111100101000
11110011110
1110101001
1111111111001100
11011111
1111110110000011
1111111100011000
1010100100
1001010111
1110011001
10100001
1101100110
101001011
1111111000011001
11000100
1111100001
110101010
110111
10011101101
1111111101001100
1101000111
11100111010
1011000100
10110000010
10101001011
101010010110
11100000011
11100110
1111111111001110
1111011011
101000010
11001001
10110110010
1111111101101000
11010100
1101111110
100100100
10001101101
10110010001
11000101001
10111100000
11111101100
11111111011
100001110010
100000011111
101010101110
100111101100
1111111000101100
10010000111
10000010111
10110011000
11101010111
101110111111
101010001101
100110000010
110001000
1111111100100011
11101001001
1100101
10000111
11001101
10010110000
11001001101
11101011
1111111001
1111110110100011
11010101100
11101111010
11000100001
11001101000
100010001111
11011100001
101010010010
11101100010
11101011000
1011010111
11010111010
10000110101
1100010111
10001111100
11001111010
1101100001
10011111000
1000100011
100111110
1101010000
1111111111100011
1101001
111001
11110111110
101000010011
1111110111111110
1100000001
1111111100100111
1111111111110001
1110100011
1101000011
10001100000
1010000011
10001010101
11000010110
10111001111
11010111110
11101100100
10001101000
10100101111
1111111101110111
1110011
1011100
1000101000
10101011000
1101111001
10000011110
1111011110
1111111110101111
1111111101011100
1111111111111000
1111110001101000
1100101011
1111101101101001
1111110010101111
1111111111101101
100100100
1000000111
1100111100
10100000011
1101110011
11010110011
10010101001
10111000001
11010011000
10111010001
1001101
1010111000
1111111101111000
1111110110110100
1111111011001001
110011111
1111110110001000
101100100
1111111000001000
1111111111000010
1111111111111100
1111111110000111
1111111110110101
1111111011011010
1111011110000111
1111110000110001
1111111010100010
1111111001100000
1111110111110010
10001010011
1001010001
1111111100010001
1111110000110110
10001
1011111100
1111111000101101
1000101111
1000010110
1000011111
1111111111111100
1100011100
111100110
1111100111110010
1111110100000110
100010
10011011
1111110011001110
1111111101100100
1111
10001
11101
1100000
1111111010110001
1111110010010111
1111110000101011
1111100011101011
1111111010000011
1111110110010100
1111100010111010
1111101111111110
1111111101110010
1010111101
1111111001100110
1111100010010010
1111111001010000
10001100010
111101000
11010010
1111111111001111
1111111100001111
1111110010000111
1111111010010101
1111100111010011
1111101100101111
1111111001010000
1111111110100000
100
1111111110100010
1111111110001001
10010000
1111111110010011
1111110011101001
1111100011001011
1111001101100101
1111000000110001
1111000111011100
1110110110110001
1111110110001010
1111110111010001
1111101100111110
1111010101001101
1110111010110100
1111010010100110
1111000000000011
1110111100001001
1111101100010100
1111101101001111
1111110000011111
1111110010011100
10011111
1111110101111010
1100110
1000011
11101
111
