1111111101110010
110110
1111111101101010
10010010
101001
1111111110001111
1111111110011111
1111111111101010
1111111110010000
1111111110101001
110010
1111111110011111
1111111100101000
1111110111000101
110101
1111111110001100
1001101
10101100
10101111
1111111110011100
1111111110011011
1000011
10000
1111111101010001
1101011
1111111111000111
1111111111110011
1111111101110100
1111111111111001
1111111111100000
101
11
1111111110110010
1111111011010000
1111110010101101
1111101110000100
1111101100101101
1111011100011001
1111011000111011
1111001101001110
1111001011010011
1111001011111000
10101101101
1111111011101010
1111110011111101
1111011110010001
1111010100100010
1111010100100101
1111011010000011
1111011011000100
1111100111010101
1111110001001110
1111111110001000
1111111110101011
10100101
1111111110010100
1111111101100101
1111111110000001
1111110111000101
1111101101110110
1111101011000101
1111101100000010
1111011010100100
1110111100110100
1110110100000011
1111101000001100
1111100011100000
1111010010011000
1110101011111110
1110010111000111
1110101100101001
1110111010011110
1111001001011111
1111110001011101
1111111000011010
1111100000101011
1111111000010110
1110100110010111
1110111000111011
1111001000010111
1111010001101111
1111100100110101
10001000
11100
10010010
1110111
10011010100
1111100111111000
1111101100010100
1111011001110110
1111011100000111
1111110000110011
1111010101011110
1111010111101010
1111011100110010
1111110101000001
1111101011010010
1111110110001000
1111110111001100
1111111011011110
1111110111011000
1111110110100000
1111111110000001
1111110110000001
1111101010111000
1111100110100001
1111110100110001
1111111010011111
1111101001100111
111100111
10001100
10011000
101000
1111110111011001
10010111111
1111111100110111
11111100100
1111110111111100
10011001000
1111100010101000
1111111110101110
1111100111110101
1111110110111001
111100000
1111110110110110
1111111001010010
1111111000101110
1111111111100101
100001001
100111111
101101011
1111111111100101
111010001
1011101
1111110101111111
1111110100100100
1111101100110111
1111111101111101
1101011000
1111101010001000
1111111101111010
1111111111011011
1011001
1111101110110011
1000010001
1111101011
111000
1010000011
1111111101010111
1001101
1111111010001001
110100
101001011
1111110010011100
1111110110011001
1111110000110000
1111111111011011
111000001
1111101001101010
1111101101010111
10101010
100001000
1100101101
1111111110010110
1111110111110101
1111111101110000
1111110101001101
1111110110011101
1010100
1111111110101010
1111100010111011
1111101100001001
1111111111000101
1000100100
1111110000110011
101101010
110000000
1011101000
1001000011
1001101
110111001
1001110100
101110001
1111111110110011
1111111011010101
101010001
1111111110100101
111011000
1111110100101011
1111111110111000
1111111101000111
1010101
111011010
1111111010000101
11110000100
1111111000011100
1111111111001001
1010101101
1111111010110111
1111110110010011
110101101
100101010
1111111010101011
1001010100
110011000
11101101
100101000
111100010
10010001100
10111110
110001110
1101000111
1000001101
101000001
110101000
110001111
1111111110101111
101000101
1111110100100110
11101
1111111101100000
10010010110
1010000010
1111110011010101
1111100111010100
1111111101101010
100011101
10101
10000100011
10101001111
111011011
1000100100
111010110
11001010
1111111100110010
1001101101
110011101
1111111111000110
100100100
1001110010
1111111011001001
1111111101100101
10000110010
111110101
1111111111001010
1111111000001001
11100000
101010010
110101100
11000100111
1101111
100010001
100000001
1001001000
1111101000111100
1010001110
10010111011
110001001
1101101000
10000010010
1010110
1111111110011100
1000000111
110100110
1110110
1000010010
1000101100
1111111000101000
1111111000011010
1100101
110
101100111
1111111110001010
111011010
1001110010
11111001
10010010
10010101010
1111101
1111111001111000
111000100
110000110
1111110010011110
1111111011100110
1010000000
1111111001001100
1000
111101001
1001001110
101001011
110011101
1111111010111000
1111111111011101
1101110111
1001101000
110010100
1111111110001100
1111110110000001
110110010
110001101
10001100000
110001110
10
11011100
1111111111101010
1111111011001011
1111110101110001
1111110010011010
1111111110000010
1111101000001010
10011100101
1111110010001111
10101010011
1111110101101101
1111111000110001
1111111111001110
1010011110
10000010011
1111111001101000
1111111111110011
10010011
1011110001
10000000011
10000011001
110011
1111111000111101
1111111110011001
1111110010101110
1000001010
1111111010100100
1011110100
1111111110010110
1111111011110001
1111111110111011
100100100001
1010101000
1001100
1111110011110111
1101111111
1111110011111000
1111111011101001
1111110000100001
1010101101
1111101010
1010101011
100111100
1111111110010011
1111111101011100
1111111111110110
1111001
1001101000
1011010010
11101001
1111111000111100
1111111111011110
1111111100011011
1111111111101101
1000011000
10001001111
10000111001
1111110111100110
100011101
10111100001
11101111010
11111
1111101000101011
1111111111010001
1111110000110011
1011101110
1111001001
10101000110
11100100011
1011110101
100000111
111111101
10000001001
11011111
1001111001
10110010111
10001110101
1001110010
11011000
1111111100110001
1111111101101000
1111111100001111
1000110010
100110001
1111110011010110
1111101011100100
1111111000010100
1111111000100101
1111111110110111
1111111000110110
1111111011000101
1111111111001010
1111111000100111
11010001
11110110
1010001001
1010110111
100100
111011110
1100010101
1001010010
111101110
10011001100
100011111011
10111100100
1011110110
10001011000
1111111001010101
10000011011
1111111110110101
10110010
11000101
11000100100
1111110000100000
1111111101000011
10010110
1111101011100100
1111111001101101
1111101100
10101000
1111110111001110
1111110001111011
1111110011101010
1111110100000000
1111111000010000
1100001
1111111101010000
101010111
1110110110
10111011001
100011011111
101000110101
11110010010
1110111110
1110001100
1100011000
1111110010111111
1111110000110001
11100100
10101100100
11011111
1111110101001011
110011100
10101001
1111101111110010
1111111011011100
10001010000
1111111011100101
1111111000110011
1111101101110010
1111101000010101
1111101110111100
1111110000111000
1111110110001001
1111101101011100
1111110111001011
1111110001111111
1010011001
11110100111
11011100011
10011110111
1001000111
11001001
1111111011000011
1111100000111100
1111100101101101
1111111011000001
1111111001000000
1111110100000011
1111111010101001
100101110001
10101011
1111101100011101
1111111110111111
110011110
1111110111111001
1111110010011001
1111101000111110
1111101100110001
1111111110011110
1111110011110010
1111110010011111
1111101001001001
1111011101010100
1111100100110001
1111110100111100
1111010100
10001010111
1010011010
1111110101100100
1111101001010001
1111100101111001
1111101000100110
1111101010110001
1111110111001001
11000
1111111001011000
1000111
11000110100
1110111100
1111100000010001
100110010
1111111100100110
1010001100
1111100110001010
1111110000001001
1111110100010011
1111111100110001
10110
1111101101101000
1111101111111010
1111110010000101
1111100101101110
1111100011111000
1111111001100111
1001001
1111110100010001
1111101100011110
1111101100110010
1111100100100111
1111111110000110
1111110001111111
1111110110110110
1111110010110000
1111111110100001
1111011101001101
100001101
1010101
1000011111
1000011111
11000101
10101010111
1111101110110011
1111111111001111
1111111111101001
1111111101111111
1111110001111000
1111110001111011
1111101101110010
1111101011000000
1111101000000001
1111101100110000
1111101100111011
1111110100011001
1111110110001110
1111111110101111
1111110000011010
1111110011110100
1111111000100110
1111110101101100
1111101111111001
1111101110011011
1111110011011010
1111110011101111
1111001000
1111101100111000
111111011
1111111101100111
1111110110000110
1010010100
1111111010001010
1100101000
1111110101100001
1111111101100000
1111101100100110
1111111011011010
1111110111010001
1111110000010110
1111111100000001
1111110010011101
1111110001100100
1111111100010111
101101110
111010111
100000001
1000101
1111110111000111
1111110110001100
1111101100001000
1111111010111100
1111110001011000
1111111011100010
10000001
1111111011011110
1101110110
11110011
1010111111
11000101011
1111111010011100
1111110100100111
1111001000
1110001
1010011011
111000
1111110010111010
1111111010111111
1101111
1111111111011001
1111111101000010
1111111011000001
1111110110100111
1000100
1011001
1111111000111001
1111101001111100
1111101100110100
1111111011100110
1111111000111100
1111101110010110
1111111000010000
1000010101
1111011100001011
1011011
110001011
110100
1011101110
1111000100
1111111011100111
1000011001
1111111111101100
1000101101
10110000
1111111011110010
1111110000010010
1111110010011101
1111110010111000
1111111001110001
1010110111
1111110110000101
1111110000010110
1111110111011010
1111110111111101
10001011
1010110
1111101111100000
1111111110001111
1111110010110100
1111101100100000
1111111111010101
1000101
1111111100101101
1001110
1111111110000001
111100110
10100100010
1111111110011011
1111110011110001
1111111111101011
1111111110010010
1111111000001000
1111111010110000
1111110111011001
1111111001101111
1111111100010100
1111111110110000
1101011100
11101110
1011000110
11011101
1110110011
10011000100
1010001100
11000111
1111110010111100
101011101
1111110000010001
1111101001111111
11111100111
1111111110001101
1111111101010111
1000001
10110011101
10101
1111110110011011
1111110100111110
1111111100110110
10000111111
11011111
1111111010111000
10000010
1010000110
110011011
10010110110
10110101000
1110110111
100001010100
101001000001
100011100001
10111100001
100111110
1111111000100000
1111111010011100
10010101011
1011000011
1111100101011111
1111101111011110
1111111110001101
1111111110011101
1111111111010010
1111101110101001
1111110000001000
11111000111
100100101001
11111000001
111010110001
100100111101
100011111001
11010011001
10111011101
111101111000
111001110111
111110010110
110100001110
111100011000
111111101010
1001000010001
100000111101
1111111101001011
1111111001010011
10000111110
100011000110
110010011110
1111110001010100
1111110100100011
1111111101101100
1001110
1100100
1101010
11111000
1111111011010101
1100011011
101101111
1100011100
100111000101
101000100011
100110011011
1010101111
1000100000
11100110100
101001000000
100101010111
10101001011
110010100
100110010100
10000110011
1000110100
10001101010
11001011001
11110001000
110001110
11000
11001
1
10011111
10011111
11111
1100111
1111111110001001
1111111101011101
1111111101001011
110111111
10010000000
11100000000
100001000111
1111111101111000
10001011
10111110110
101101101111
11110000111
100000000000
100100110
1111111011100001
1111101001110110
1111011111001010
1111101011000000
101000001
10011111111
1111111110101110
1111111101010101
11011
1111111110100101
