1111110011010001
1111001100010110
1110101011101100
1111110111000100
1111100010101010
1111010100110011
1111001001
101010111001
100010111011
1111111010100010
101011000101
1111011010001110
11010001000
10101000000
1111111111111000
1111011100100010
1011100101
1111110111000010
1111100111100111
111100110
1111110110110010
1111110010000010
1111011101010010
1111110011111100
10111100000
1111111110100101
1111111110001101
1111110010000011
100111010110
1111110101000101
