101100110001
1111100010000101
1111101101101000
111010110
1111011101101000
110000010000
1111110010001111
11001110110
1111000001011101
1010110101
1111100111100000
1111001111101100
1111100101011100
1111101101
11010010100
1111010111111000
100001010111
1111100011001000
10011010011
101100011
1101011110
1111001101001100
1111111111001000
11010111010
10100111100
1110111011010011
1110111101110010
1111010111100100
1010110001
1111100100110110
