101011110
101001101
100010111
1111110100001100
11101011110
1111011110011110
10111010011
1111010110110101
1111010101011010
1111110100010001
10000000
101011000101
1110110111
1111110011000001
1111011000000100
1111010110001111
1111101010100101
1111111001010100
11011010100
100010011011
1111011101
10101010001
1001001100
100001
1111100100011001
10110010110
101001101001
101010110101
110110011
1111111111010101
