1111000011
1111111001011000
101101101
1111100100011100
10010001
1111111011001101
10100101001
110001011
111111111111
1111110100010100
100001010011
100110011110
1111111000010111
1111101100001100
1111101100010011
1111101101101001
1111100000011000
10100101011
1111100001010011
1101000111
1001011110
11001010111
1111010000100110
1111000110011111
1111100000101110
1011100000
100100000011
10110001001
1111111000111111
1111101101010100
