10011110101
110100101001
110010010101
1111010010100010
110100010
10001011111
1111100010011100
1111110101111111
1110000001
1101101001
11010011
110110011
1111100000001111
1111010001000100
101111101
1111111011000011
111001
1111000011
1111010110010010
11110101010
1001001111
100110100010
1111000100100100
1111101011
1111100111110010
11000010010
100010001010
11111011
1111011010001111
11101111011
