1110100010011001
1111110110110101
1111110011010010
100101010101
1110110000100100
1001000101110
1111000111100001
1111010110111100
10100110100
11110000100
1010010111
1111001101100100
1111100101111101
10110001
111011111001
111101010001
1111101111000010
110001110101
11011011100
110011
11010010110
1111111001000000
111000001111
1111011011110110
10001011011
1111101011011111
1111100100000001
1111011011010101
1111101000100011
1111100000110001
