1111011111100011
1110110100000111
1111101011101101
1010111110
1111111111111101
1001000000
1111001101001010
1100001001
10110111010
11101100010
1111101101110011
101010100
10111011110
1110110001111001
1110110
1100111111110
1001001111
1111110110011101
1111111100101100
1111100100100111
1111100000101111
101001000110
10000011110110
100101110000
1111111011110010
100000100001
101111001010
1111101111100100
1111011000
10001010000
