11111000000
1111011110011010
1000010011
1111101001001001
1100111011001
1111010110011010
10101
1101111000101
1111110100010011
1110001101
1111100111011101
11010111111
10101000010
1111100110101001
1111011011010001
10111001100
10000011000
1110111111100001
11011001110
1000101
1111101101001001
1111011000110100
1111001111001100
1000110110010
100110010
101000110
110000100100
11101000011
1001111101111
1011110001011
