1111001110111010
100100001110
110111010011
110111001100
1111101100010001
10100101100
100010000001
1111011101011100
1111100100000001
1010010
1111101010101001
1111100000000110
111010110110
101110110111
1111110111001000
1111110010001101
1010000111
1000000110101
100110111000
101001110001
11000
10010111000
1100011100
1110101000011111
1111010110110000
1111100110111001
1111101010111100
10010101100
1110110100001011
1111010101110011
