1111111101011111
1100010
111110
101011
1111111111011000
11110
1111111101111000
1000001
100010
111101
1111111110010100
1111111111000101
1000010
1111111111100001
11010111
1111111111100101
1010101
1111111110101100
110001
10101100
1111111110011010
1001100
101111
1011000
100
10000111
1111111101101000
1111111110110101
10011010
101101
10101111
1111111111010100
1111111101101000
1001011
1111111111110011
110100
1001100011
1111110111111011
1111111101000100
1111110100001011
1111101111110001
1111110011000111
10010001011
1111110011111010
1111110011000111
1111101110111010
1111110000001000
1111110010001000
1111100101010110
1111100111010000
1111101100110010
1111111110001000
111011
1111111110011001
11111
1111111110011000
1111
11100
1111111111101101
1111101011101010
1111101001111100
1111111101001011
100110100
1111110110000110
1111110111010100
1111101010001111
1111110001000101
10101101101
101111001101
100110101011
110101111011
110010110100
11110111100
110101110010
110000110000
1111111110111001
1100010
1100111000
1111101111011000
1111110010000110
1111111000001101
11000111
1000100
1111111101110111
10011100
10111
10100
1111101001101111
1111101010010100
10000001110
10001111101
1110111001
1111111100101110
1111111100111000
1111111110101011
1011001
110011011
1111110111010111
1111110001101110
10111010011
11110101011
101111100111
111000110100
11111011111
1001111
1111101111001111
100110011
1111111000101101
10100000110
1111111100001000
1111110110000110
1111111101110111
10000110
10100001
10010100
1111100011001010
10111110010
1000100000
1111110011111000
11000010000
110010011
11101111
11101111010
1111101011
10001011111
1111111111000100
1111111101110011
1100000101
1111001001
1111111110011000
11110001
1111111000110001
1011100111
1111110000010111
1101010
1111100100110011
1101000111
110110001
11100111
10001100
1111111111111000
1111111101100100
1111111101010011
1111100001000111
10010001111
1010001010
11000001
11000011011
100100101
10000111110
1111110011011110
1111111011010110
1000110011
11110
10100100
10010001011
11111000001
1010110010
11000101010
10011010100
101111101
1011001101
10000101100
1100111011
1001100011
1011100010
1111101000010010
1111110111010101
1111111110010101
1101100000
1111111110010010
1010101111
1111111010001111
1111100100000011
1111101100010111
1111101101000101
100011100
101010100
1111111001001100
1111111000010111
101011100
110100001
10101110011
11010100100
11011001011
10100000110
10000110101
1000111000
10110101
1111111101000100
1111111010110010
101101011
1010110111
1111111011010000
1111111101000110
1111011111101110
1111111001000000
10011110100
1111111110101111
1111110100100011
1001010110
1111110110110101
1111110111001111
1111111011111001
1011010110
1111111111100100
1111110101000100
1111101110010101
1111110001101110
100001101
1110110101
10001010
1111111011011011
1111110111110100
1111110001110100
1111110000011011
1111110111001011
1111110010011010
1111110100110100
1111111011011001
111001010
1110001011
111111100
1111011111011000
1111101000101100
100001111100
1111111000100101
1111111001000111
10001001010
10001010
1111101101101010
1111111010001010
1111111000111000
1111111000011010
1010111
1111110000010111
1111101111101111
1111111110100111
1111110100000111
1111110001000111
1111101010111101
1111101010111000
1111101000011001
1111110000100011
1111110010011000
1111110101110011
11101
1111111001100101
1111110100011100
10010010
10100100111
1100101
1111111111000010
1111110011011010
1111110011010001
101010100
10000010111
1111111101111001
1000101000
1111111111001101
1111111110111000
1111111111110000
1111111101110001
1111110110101101
1111111100001010
1111110101001101
1111101000011001
1111101101101000
1111101101011010
1111110100111000
1111101001010111
1111110000001010
1111110101110011
1111110001010111
1111111111111000
1111101010011100
1111111101001011
1111111000100011
1100100001
101001011
111010101
1111101001010010
110111000
1111111101000001
1111101111000110
1111100
101110
1111111001100111
1111111011011110
1111111100010100
1101
1111110111101100
1000000
1111111000011111
1111101110100001
1111101111101101
1111101010001100
1111101010000010
1111110001000011
1111110110010101
1111111000001000
1111111000100100
1111111001000001
1111110101100111
100101011
1111110010100101
100100
10001111110
1111110010111111
1111101011010101
10100011011
1001001001
1111111000101010
1101
1111111001110111
1111111001000110
1111110111101000
1111101101011101
1111111001011001
0
100000010
1111111111110100
1100011111
1111101110
1111111010111101
1111110110000001
1111111110110101
1111110001110011
1111110101000100
1111110100001101
1111110100111000
100010
1111111000111000
1111110101000011
1111111010100100
1111111110110111
1111110010111110
1111101000100101
1111111001101001
1111111010110000
1111111011111001
1111111110111001
1111111010001101
1111111011110001
1111110101000000
1111111001100110
10010
1111110111101000
1111111110011001
10101010
10101100100
1111010011
1100011101
100110101
1000000100
11010101
1111110110011100
1111111110001110
1111110101010101
1100000011
10001100011
1111101010000100
1111101000101110
1111111110101010
1111111110101101
1111100101100101
1111110001011111
1111111100011010
1111111011101101
1111111100100011
10010010001
1111110000111011
1111110000100011
1111111010110100
1111110000001100
1111111011110011
1111111100001110
110010111
10000011000
10010011110
1010010010
1110001011
1100100100
10001100011
100111101
1111111001110111
1111111010111100
1111111011010111
10100000010
1111110011000110
1111101001010101
10110111010
1111110001110100
1111101110001101
1011010011
11110000
111001100
1111110101000101
1111111100011000
1111111010011011
1111111100010000
1111111000110111
1111110001001111
1111111001001111
1111111011111011
111001010
10101001111
1011111000
1011100011
10010011
1111111111001001
110100111
10011001
1111111101111001
1111111011011101
1111111101001010
1111011101
10000100010
101011001
11001111101
1111110000000111
1111110101001000
111010001
1111111010010000
1101001000
1111111011
1111111111110000
1111110110111111
1111110110110100
1111101101100100
1111101010100110
1111111010010100
1111111111001000
11011010011
10100001011
1100011011
1011000001
1111100
111101000
10010011000
101010011
1111111011010101
1000001
10
1111111110101111
10000011010
100001110011
101000101
1111110001101011
1111011001
10100111010
1010100100
1111011001
10001100
1111111001111010
100001110
1111110010001101
1111101110100101
1111111111011001
100111011
101000110111
101000001000
110111011
10001100001
1011110010
1010001001
10001011011
1110110011
101001111
11101100
1011111011
11010110
10100111010
1100110001
101001101001
1111101010010000
10001111
110110000
11001101010
1111101110101010
1111111101010000
1111110111010011
1011111001
101010
1111111101000111
1111101111111101
1111110011000010
10110101010
101111110000
11010100101
1111111001101001
1001010011
1111111110110101
10101
1000000111
1100000001
101110111
1111111011111101
10101011110
1111111000001100
1111111100001101
10010001
1111111101010011
1111101010001001
10110101
11000011
11000101101
1111111010110111
1111110111001100
11100001
1101001010
1111110101011001
1111110011101010
1111110101111001
101011111
11010111110
10010111001
1111111111110011
1111110100010111
1001010100
1011110101
1010100111
1011010100
1111111111010000
1111110111110010
1111111111100101
1100100111
1111110011111001
1111110101101011
10010000001
1111100001110001
11001000101
1111111111001101
1111111110100011
10111000001
10011010
1111110100101000
10110110
10101
1111111101011101
1111101111011010
1111111111011011
10010000000
10001010110
101000
10100010101
111111010
11000101001
10001100001
111010000
1111111101111111
1111111011100100
1000100010
10001101101
1001100000
10011100111
10000010
1111111010110101
10110010101
101011100
1111111110010000
1111100110101010
0
11001001010
1100011000
1111111001110011
110011110
111001110
11100010
100011110
10110110
10010101
1111111001001011
110
1110010000
11100110111
10011101001
1000011110
1010101110
1101010000
1001100101
1010001001
1111111110011111
10010010000
1100111000
1111110010000010
10101101011
1111110101110001
10101010
11011011010
1111111111000001
10011000110
11001101
111011100
110100
1111111000110010
11010000
1111111010011101
1111111001101110
1010111
1111111110010011
1101110110
100010000000
10101000111
10100010000
10100101001
11011100001
1010110101
1111111000101000
1111111011110011
1111110100001110
10010100111
1010010101
1111110001111100
1111101001011001
1111110001110001
1111111111111001
11011011
11111001100
1000010111
1100001110
1111111110001101
1001111
1111111110101101
1111111001101000
1111111111101001
1111110101000111
1111111100001100
10010110
111011000
1011100001
1010001110
110011011
1101001111
10000100011
1110100
11110000
1111101100100110
1111111000010001
111110011
100011101
1111100100101101
1111101001111111
1111101101110010
101110
1100010
10101011000
110000010
10011101000
11101111000
1111110110111101
1111111001111001
11100011
1011100
1111110101010010
1111111000010100
11011
101101011
1001010000
1101000010
11111100
1101111000
11000010010
101011100
11011101
1110111000
10110011010
110101111
1111111001001111
1111110100011111
10000000110
1101101
1111111111011101
1111111111100111
1011011
10010111000
1111110110010011
1111111101011110
10010101101
110011010
1111111111101101
1111111110101010
10100100
1000011010
110010100
11111010
1011111001
100001100
1111111100001000
1111111010011011
11100010
11010010001
11010111111
11100001010
10001101011
1101011110
100001001
110100000
10111110001
1111111110001110
1011110
1111
1111111111011000
1111010110100001
1111110110010001
1111100110000101
1111100001000111
1111110101101010
1111111010101110
1111111111010110
100000100
1111111101100010
111011110
1111110111100101
101100000
1111110001101011
1111110001001111
1111101001001010
1111110100000001
1011111010
11011000011
101011111
10000101
1111110001110111
1111110110101001
1001010101
110101110
1111111111010011
1111111111000001
101100
1111111101100010
1111101010
1111100000100101
1101011
1111101011000111
1111111111100111
1111111101000000
1111100111100110
10110010001
1011110101
1111111001101010
1111101011110010
1111100100010001
1111100110110000
1111110111100011
1111101001101111
1111111000110100
10101011
1000111001
1111111111100000
100100101
10010101110
1101000011
1111111101010100
1111111110010000
111111
1110000
1111111101101111
1011111
1111111101110001
1111110110100101
1111111001111101
11011110
101100101
1000000110
1111110010010000
1000111001
1111110101110110
1111110110000010
11010
10111100010
1111101001011101
1111111100111101
1001100111
100011
1111110110011011
1111110111110110
1111110100001101
1010011
1111101011
1111111110110010
1111111101101011
11110
10000100
