1111111111100001
101011
1011001
1100100
1111111101111000
1111111110110111
1110
1000011
1001110
1111111111011001
1111111111001111
100111
1011101011
11111011
1111110100000001
1111111111001110
1101101
10101110
1111111101101110
1111111101011010
1111111101101001
1111111101111111
10001
1111111110001110
1111111101101100
110101
1100101
1111111110011111
1111111110101101
1111111111000100
1111111101110000
1111111110100011
110001110
110110001
1000000000
10100100110
11000101011
100001001110
101010001101
1111110100000101
1111110100100000
1111111000100111
100011100010
1111111000001100
1111100101110101
1111111100100000
11101101110
11001111011
100111101010
100000100011
11010001011
1000010001
1111111111111101
1100001
10100100
1111111111011000
1111001
1111111110110011
1101000011
1111101110100000
1111110000001001
10010001111
11001011101
100110111011
11001110
1111110011101000
1111111110001001
1111111110000101
1111101010011000
1111101000100101
1111111110000100
11000101
1111111100110100
1111111110110101
1100100010
111110011011
110011000010
110010000000
100001110111
1111111011011111
1010111111
1111111011111110
10000001
10100010
1111111101110100
1111111111000101
10100010101
1111110010111000
1111101010011001
1111111111010100
1100011100
1101101101
1111101011110111
1111111000100000
1111101110000100
1111110111001011
1111101000100000
1111100111101110
1111111101001100
1111110110101010
1010110001
10010011100
10001011001
10100111010
10011000110
10111111001
11100101010
11010011100
11001001110
1111110100111011
1111110110101010
1111111110100001
1111111111101000
1111111010000110
1110100001
11101111
1111111100100011
10000100000
11001100
10001010
1111110001011100
1111111111111111
1111100111101101
1111100010100000
1111110010010100
1111110100001000
1111101001100100
1111110000100000
1111111111100000
110111011
11111010
1101001001
10010000110
10011011110
1011110011
1011111010
1111110011001000
1111110011011000
1111100011001110
1111110010001000
1111111110111010
101101
1110100011
1111111000000000
10000000
1010110101
1111101100000110
1111101111100010
111011001
1101011000
1111110100101110
1111011111110111
1111010101111100
1111101101110101
1111111100001100
1001101
1111110110110000
10111
1100111001
1111010111
1111111010001110
1111111111000110
11000011
1110111010
111101100
1111110110101101
1111010111001010
1111110100110010
1111111111110001
1111110001111010
1011010011
10000101110
1000110110
101000011
1111101001011001
1111101111001011
1111111110010011
1111111100101000
1111110111101101
1111101111000011
1111110001000011
1111111001010011
1111111101100100
1111110110110100
1111110101110111
1111111010100111
1111111110110100
1111111011000111
1111110101100010
11101
11101101
1111111101100010
101000010
1101001110
1111110110000110
1111110111011010
100011011
1111101110111010
1010000110
10010000010
1010110001
1111110001101000
1111110111110001
1111111100000010
1111111101101101
1111111000000101
1111110100010100
1111110111110000
1111111110110011
1111111101000000
1111110111010100
1111111011011110
1111111001111110
1111111101100101
1111111111100101
1111111101100010
1111111011110000
1111111101110100
1111111111100111
10100000010
10101111
100001110
1100010010
1111111010101001
1111111000010011
1111010111
10000011111
100110111
10110100
1111
1011
1110
1111111010010111
1111110110011110
1111111010010001
110011110
1111111101011100
1111111100001111
1111111011100111
1111111000100011
1111100110000001
1111110110111001
1111110011100101
1111110000101111
1111101010101010
110000100
1111111010010010
1001001010
1000111010
1111110111
110100110
1111101100001000
111100101
100000111101
1111111111000000
1001001100
10011100011
1110000001
1111111110101111
100100100
1111111100100110
1111110010001101
1100101
110111011
1100111
1111111110010111
100000010
1111101011101010
1111101011011101
1111110111010011
111110001
10110001
1111111001010000
1011000111
100010011
1011011011
1100111001
10001111010
1111101111100001
1111111000011000
111110000
111000001100
1011111100
111111100
1101000101
101011000
100001111
1111111111001111
1111110011110011
1111111110011111
1111111010101000
110001000
1001011
1001100000
1111111110010111
1111110011111101
1111110111110100
100100000
100001000
100010001
10111000
1110110011
110011110
1111111111100010
1111111011110010
1111111101000100
1111100001100110
1111101001100100
10101000101
1111101111110111
10001001100
1111101111011010
1111111000111111
1011110
1111111100111100
11101101
1111101100110001
1111110111110001
111011101
1000000011
10011111110
1111000101
1111101011001000
1111011010111000
1111101100100100
1111111110111001
110100010
1000010111
11001110
11011111
1111110100001111
1111100
1111110001101010
1111010011001101
1111110011000001
111110011
10001001010
1000100010
110100111
1111111111010010
11101011
1100000
1111111100110010
1111111111011111
1110000
1111111101010010
101101100
10010011000
11100010100
1101000010
1111101111110111
1111010101101110
1111110111111000
110000110
1100000000
101111100
1111111000100111
1111110011011001
1111111000101000
1111110100101001
1111101000100001
1111100000111001
1111110000101111
11110111
1111111100100011
1111101100000110
10010111110
100001111
100100000
10001000101
1011101101
10111010
1111111101100000
1111111110110000
10010111111
11011000011
110010010
1111110110100100
1111100011001011
1111011100010001
1111111010001100
1100001011
1111111101111101
1111101111111110
1111111100011010
1111110100101010
1111111100110101
1111110011001101
1111110100011101
1111000111000101
1111010100110101
1111101010000000
1111110010010100
1000100
11011101110
1011001011
10101
1100100001
1111111011001101
111001010
11110101
111000101
101010110
101101
1111110101110110
1111110000011101
1111010111110010
1111101010111111
1111111111111000
1111111110101001
11111000
1111111101100110
111101111
11001010
1111111111011101
1001101
1111110001000001
1111011000011001
1110111111110011
1111110010000001
1111111001000011
1111111000101011
1011100110
100110110
1111111100001111
1111110110101010
1001001010
110101000
1111110001010001
1111111111010101
101100101
1011111100
1111111110011011
1111101100101110
1111011100111101
1111110011100010
1111111101110111
111000100
1111111100110010
1111111000110100
1001010001
1111111110111010
10011101110
1001110110
1111100101011001
1111011110100100
1111011001110100
1111111100000111
1110100000
1111111011000110
100101100
1111100111101001
1111111010110000
1111111101000100
1111111110011000
1010010110
1111111100100010
1111110101110110
1111111001110100
110111100
1111111011000110
1111101100111000
1111110000001111
1111111001010101
1011011110
10000000
1110010111
10001000111
110000000
1110100010
10100111100
11000011011
1110011
1110111100100010
1111001111110011
1111101010001010
1111111101010100
101110
10100100010
1111111001100010
101001111
111110111
1111110000010100
1111110010011100
1111111000011111
1111101111000100
101001101
1111111101011110
1111101111010101
1111101010110010
1111111001110010
1111111101111011
111111110
10100010011
11011110101
111100000
1000011010
1000000111
1111111101011100
1111101110100000
1111100001101001
1111001111101101
1111111101101101
1111100100001010
1010011
100010000
1111000011
101010001
111000011
11010000
1111111100010011
1111110101010100
1111111101011000
1111110000011111
1111101111110101
1111101101011000
1111100010010010
1111100100110111
1111110011101101
1100011
11011111110
10100111001
1100111111
1111111101101001
1111111111110010
1000010000
1111111101100100
1111101110111011
1111011010111100
1111010001000010
1100011111
110110011
1111111101110001
1111100111
1110101011
10001011000
1111111100011111
1111110110111010
1001111001
1111111010000111
1111101010110111
1111110010111100
1111110011100111
110000011
1111101001000001
1111100000101010
1111110011011101
110000000
10010100101
111001
1111111001101100
110111011
1001011111
1111111001101100
1111101100101111
100111
1111110111111100
1111111101100010
1111110011010100
1111111111010100
1111111110000100
1111110100101010
10010001101
1111111010001101
100010010
1111110110100100
11111110
1100010
1111111111111011
101011011
11110110
1011110
11011010
1111110111010000
101000010
1000000010
1000011111
100000
1101001
1111111110011001
1111111010100111
1111101100000011
1111111001100010
1111110111000011
111
1000010
1111111111010101
10000000100
1010101
1111110010001110
1111110100101101
10001001011
111011000
101101
1111111110011000
110011100
1110001001
10011101101
1101011000
1101010110
1110010100
1100000010
1010000000
1101101111
1101110010
110110111
10011100110
1000101
111001
100101010
10011011001
1000011000
10001110001
10100111110
1111100011101110
1111110111010001
1001110
1111111110010101
1111110100011111
10000101101
1101011000
1010110100
1111110011110111
1111111011110001
1001111101
10110000000
1111111110110010
1101
1001100010
1111111111000001
11100011
10101000100
10000010110
111000101
111111010
1010111111
1111111101000010
1111111111100111
100010
1111101101010111
1111111001011111
1110011011
1111110110001110
1111110101101110
1111111110111100
1111111110000000
1111011010101011
100111000
1111111010110111
1111111110100011
10000100
100010011
1111111101010011
10010000001
100110000
1111111110100110
1111111100100001
1111110010101000
110001010
1000001111
11001001
1011001000
11101100
111111011
1011011
1111111100010000
1010011
1111101110001010
1111111000010101
1111110011010101
1000100011
1111111110111000
10000110
101111
1010110011
1111110011101000
11010110
1010010011
1111110101101000
110011100
11010010
10100000101
1100101011
1111110010011100
1111110100100010
1111111110001011
11101111
11001010000
11111010111
101000011100
11010111110
11011010010
1111110110
10001111000
1111111100100010
1111100110101011
1111100101111010
11011
10000010
1111111110000111
1111111101110111
1111111111001011
1111100101110100
1111100110011110
1111101010000010
1111111000110000
1111101111110101
1111110110011111
1001111
1111111100101101
1111110011011010
1111110110000010
1111111110001000
1111110001011010
1111111011010011
1111111110001010
1111111011
10010010111
10111111111
10001110000
111001110
1110001100
1010101
1111111000000011
1111110001001001
10000111
1111111111111000
1111111111011010
10101010
1111111111011110
11
1111110111110010
1111101010011011
100000101
100101101
10000011
1010110101
1111111001
11001
1111111111011000
1111110110100101
1111011111001010
1111100101001010
1111101111111100
1111101010101000
1111110111001100
10010010
1001110111
111010100
1111101110001001
1000000111
1111111111001011
10001000100
1011010111
1111111111010001
1011001
110101
1111111111100011
10010000
1111111111101110
10010010010
101001010000
0
11000111001
10000111111
11001100100
100101111
1111111101110100
111000111
10001011101
1111111000110100
1111111010111101
1111100101
101010001000
1100100000
1001111101
1111111101100000
101010
10000110010
10101100000
1111111111010100
100011
11001
1111110
