1111111101011000
0
1111111111011110
10000010
101010
1111111110100111
100000
1111111101101101
100010
1111111110000100
10001000
101010
10
11001000
1111111101100101
1111111101000100
10011110
111
1111111111000000
1101111
1111111111111011
10001001
100101
1101101
10000110
1111111110001111
1111111101011111
1111111110001101
1111111101111100
10100000
1111111101010011
100010
1100
1111111100100110
1111110000111011
1111101101001110
1111110000100011
1111101000111101
1111100100111111
1111010011001010
1111010010101000
1111011011010001
1111110010110100
1111011010111010
1111011001101010
1111011110101011
1111110100010001
1111101111111111
1111110110100110
1111110000010010
1111100110101011
1111101010001000
1101111
10000111
1111111111010101
1010010
1111111111000110
1101011
1111111110111101
1111110010100000
1111110000001011
1111111001101111
1111101011100011
1111010110101000
1111011010100100
1111001101110011
1111000010001010
1110111100111000
1110110100000111
1110111110011110
1111000101001100
1111001010101011
1111011010000000
1111111000000100
1111110100110110
100111101
1001100011
1111011111010101
1111100001011101
1111100111101100
1111111011011111
1111110001111110
1111111111010000
1111111101111111
10000010
1110011
111111
1111101001010100
1111100100000101
1111100111000001
1111010101001011
1111001001011111
1111010100010110
1111001100110110
1111011001110001
1111100110001110
1110110001001110
1110101010101101
1110011000110100
1110111000101110
1111001101001010
1111101000101011
1111110101101101
1111111101110001
1111101011111111
1100100011
11000000100
11111001110
11101101000
1111110110111101
1001010110
111111
110100
1111111110111110
1111111101101110
1111111101101001
1111110010101010
1111111001111000
11011001100
10001001
1111110111010111
1111000111111101
1111010100001010
1111100011000101
1111010011100111
1111010010000100
1110011111101010
1110110101001001
1111011111101001
1111011001111101
1111110101011001
1111110001110111
1111110110010011
1001001110
1000100010
1011100111
1111100010110011
1111101101100101
1111100011110101
1111111000001011
1001010
11000
1111100010101011
1111111100001010
1111100010000001
1111101010
1001
101000011
1110011010
10010001
100000011
1111111111001001
100100
1111111100010000
10000
1111110100010011
1111101101011110
10111011
1111111010101010
1111111001011111
1111111010100011
1111101100011101
1111110001011010
11100
101010011
1110011100
1111111001100101
10100011100
1111111101100111
1111110011000000
1111111101011010
1111110110100011
1111101111011110
1111111110010001
10100110
101111110
1010010101
10000100100
10010000011
11001011
1001011110
101111000
100111011
1111111011100101
1111111111110110
10011100001
1111111110011000
1111111
1011011001
1101100001
1001001010
1111111110100100
1111111011110100
1111110101010001
1001111100
10000011
1010011101
11001000
1001101100
1001100111
10110101
1111111000110100
1001111010
11001011
110011011
1001101000
1101000110
1101010
1111111110101000
101000110
1111101110000101
1111100101111110
1111111110110011
111011100
1111111100011111
11111011
1011000110
100000011
1111111111111010
1100111010
1111111011000100
1111110100010100
110000010
111101
1111101001111100
10010001100
100001010
1111110100111001
1111111001000101
101101100
100100010
1110001000
10000001100
100011100
1001100
101000101
101101100
1111111001100000
1111111001011001
1111110100110110
1111110111010100
1111111100110000
110100000
111001100
1111111110001011
111100010
1111111010010010
1111111111001100
1111111110101010
1111111110111010
1111110111010111
1111101101000001
1101101111
1000110000111
110100
110101101
1111110010000000
100111101
110011010
1111111000
1001100100
1111111110000001
110100010
1010101111
1110110001
1111111111001010
1111111101100111
1111111111111010
1111111110001110
100001110
1111111011011000
1111111001001000
1001111101
1111111000110100
1101011100
1111111000011100
1111111011000011
1111110000010001
1111110100111011
10110000000
1010001111
1001011010110
1111110111100111
111011101
1111111111001101
1111111111111001
1111110100101010
1111111110010101
100100011
111101100
101110110
111001100
110100
1111110010000100
1111101100001100
100100
1101101011
110101110
11111011
1010011
1111111101000111
1111110111110111
1111111011100101
1111101110110011
1111111101001110
111110011
1111111000011101
10001100001
11111101000
1111101100100011
10010011111
1111111101111101
1111110101110110
1111111100110111
1111111011001101
1111110111110000
1001100000
100110010
1111100111
1000010101
1111111101111110
1111100111100011
1111110101111001
1000010100
10011000010
10100011101
1011100010
11110011
10011000
1111111000101100
1111111010001100
1111101000101101
1111110000001011
111011
1111010110000110
111111000
10111001001
11111010100
101111010
1111111111100011
1111110010100011
1111110001111001
1111111110000010
1111111111111010
10111010
1111111000110001
11011010
1111110010111111
1111101000100111
1111101101110110
1111110110010101
11100000111
11000000011
1011111100
10011100100
1110010100
1011101111
101101100
1111110011000011
1111101001110001
1111110101100111
1111111110110000
1111111111000100
1010000110
1111101101001110
1011011000
1111111011100110
100001111
1111101110111011
1111111110001101
1111111
10011001011
1111110111010110
1111111010111000
1111111100110111
1111101110110110
1111101000011101
1111111000001111
101111010
11001101101
11001100101
1011101110
1100111011
100100111
101110011
1111110100010001
1111110001011110
1111110100101100
1111111000011110
111001011
10111
1111100111011100
1111110001111000
10001111001
1111101
10110000000
1111111011101110
1111101101011110
1111110110110000
1110010000
1111110100101000
11000001
1111111000010111
1111101010101101
1111101101101011
11111
111011000
10111011001
11011001001
1110001101
100011100
10101101010
1101011010
1111111100011101
1111110011001101
1111111101100010
1111110110111011
111000000
1111010110011011
1111101100001011
1111111010011111
1110011111
1111110110101110
10100111000
10110000001
1111101111110010
1111110101001101
101010101
1111111011001100
1111111101100100
1110010
1111111111001010
1111110111001111
1000
1100001
11110010111
10100111011
10101000010
1111100111
1111111010100101
101110100
1000001010
1011100001
110010011
1111111010001111
1111111000011011
1111101100100111
1101010111
10001001110
1111110010111000
1111101011110111
1111110100010101
1100000100
1111111010101000
1111110111111111
11001
11010101
1111111111011110
1111110100100000
1111110101000000
10101111
100100011
1001010001
10010000110
11011100101
1100111010
1111111110000001
1111110110011001
1111111101100010
1111010
1111111110111100
110100111
1111111110111010
1111010111111111
1111001011111001
110101
10000100
1111111010110000
1110111110
1111100101011001
111110000
1111111110010111
1111110100011101
1111111110110010
1010000001
11010000
100010111
1111111000100000
100010001
111101000
1011001110
1110101100
1010100
1111101110111101
1111110100010110
1111100000001000
1111101001100001
1111111010011000
1111110101000010
1001100
101110
1100001100
1111000001
1111110010011100
111001010
1001110000
1100111010
10110100
1111111001101110
1111110100100011
1111101011000111
1111110100100000
1111110001111011
1111101000001000
1111101110111010
1111111110110010
1111110011110110
1111111000010100
1111111110000001
1111111010001101
11000101
1111101101000110
1111100110101000
1111011011001110
1111100111001110
1111110100000100
1111110011000111
1111101010111111
1111110010110010
1010101101
100001010101
111000110
1111110101111011
111000100
1111111101111111
1101000001
1010111010
1111101110001111
1111101101010110
11000010
1111101111101010
1111011101101010
1111011110000011
1111110110101000
1111101010010101
1111100100100010
1111111010111010
1111101010011011
1111101110110010
1111100100110001
1111011001110110
1111101000001100
1111101001010000
1111110100011001
1111110011000110
1111100000111101
1111101010001101
1001000010
1111010100111011
1111101111010101
111001
1111111100111100
1011000001
1000101001
1111110100001001
1111111111010101
1111100001010101
1111110000010010
1111101100001010
1111100110100011
1111100111010101
1111101110101010
1111110100010100
1111111010011010
1111111101111111
1111101111100110
1111101110011000
1111101111101000
1111100101111100
1111110101001000
1111110111000101
1000101111
1001101111
1111110101010111
1111101111101100
1001110100
1111100111001011
1001
1111110111111010
1111100111100101
1111011
1001110101
101000000
111100110
1111100101010011
1111110101110010
1111111100010010
1011000
1111110101101110
1111110011110100
1111111001011011
1111110101111010
1111110101000001
1111101000000001
1111110011100111
1111011001111110
1111110000011011
1111110101000100
1111110101010101
1011011011
1001010100
1111110001110101
1011000010
111
1111100000011111
101000
1111110110100010
1111110101110111
1111011010100000
1111101110010010
1001111110
110011
100000110
1111111011100110
1110011110
101111011
110011101
1111110100110101
10001101
1111111010000001
1111110101001011
1111101110110101
1111101111111111
1111100011001010
1111101110111010
1111110001001111
1111110111101111
10111111
1101001000
1111110101110110
110010000
111110001
1111100010100010
1101101
1111111101100100
1111111110010001
1111011101101110
1111011110000011
101011011
1111110010110110
100001010
1111111111011000
110110
110100
1111110101000100
1111111100110101
1111111011011000
1111111011111001
1111110101000110
1111110010000011
1111110000111111
1111101100101010
1111111000000011
10101
1111111001100011
1111110011000001
11010011
101011111
1111111111110011
101011101
1111101011011100
111011
1011101
1111111111011100
110000000
1111101000111110
101000011
1000101010
100011
1111111101000111
1111111010101010
1111101111010100
1111111011011010
1111111011010110
1111110010111101
1111111100100101
1111110100000001
1111101110000011
1111110011010111
1111110110101110
1111101001001000
1111100010110000
1111101101110110
1111110101001001
1111110111000001
1100111100
1111110101111111
1111111011110101
1111111111111110
101000
101111
1111111110111010
1111111110000100
11100101011
100000000001
110000001
1111110000001100
10100010111
1011000000
111011111
1111111110000110
10101110
1111111011000111
1111110001110111
1111110011010010
1111101001101010
1111111011100100
1111101111110011
1111101110101110
1111110011111011
1111101110010110
1111101111111000
1111110001000000
1111101111000110
1100100111
1101011010
1111111110001010
10010000
1100011
1111111
10010000
1011011111
10111110010
101111101
11011010000
110011
111111
11001010110
1101101001
1111111111010100
1111100101111010
1111111100001101
11001101
1000101
1111110110110000
1111101010100111
1111111100000000
1111111010010101
1111101111101000
10010110
101000
10100001010
10011001000
1010100100
1111111111010100
1111111101111100
1111111110001100
1000101
10001010
1101011
1111011100
100100101101
111110001110
1010110111110
1001101000001
1001100000010
11100111100
1100000010
1111001100
100111001001
1001000111001
1010010011
100001011110
1000100000000
10011000100
100001100100
10010001
101001100
110111111
10000101101
1111111111001010
10000010
1111111101100110
1011111
