101100
1011
10111
1000101
101010
10101011
1111111111000001
1111111101100110
10000000
10000111
1000110
1111111111101100
1111111001110011
1111111010111000
1111111111100111
1111111110111101
110000
1100100
1111111110010100
1111111110000000
110100
1111111110011111
1010010
10011110
1111111101101110
1111111110000011
1110
10000110
1110001
1111111110110111
1111111110100000
1001000
1111111110100001
1111111101000010
1111101010011001
1111100101110001
1111101101111111
1111101001100001
1111100001100011
1111011100011111
1111011000100100
1111001100011011
1111011000111011
1111011010100000
1111011111011100
1111011111010111
1111100011011010
1111110011010110
1111110011001010
1111111001100000
1111111000110010
1111111011111011
1111111101011110
1100101
1111111110011101
1111111111100001
1100001
100011
1111111010111001
1111110100101000
1111101111001101
1111101001110100
1111101001110110
1111010011010001
1111111101101011
1111111001110110
1111101000111010
1111000101010110
1111001011000110
1110110110010111
1110100101011010
1110100010110101
1111001000111100
1111011000011111
1111111110101110
1111111010100010
1001101101
1111001101001000
1111011111011101
1111110100000000
1111111011011000
100111110
1110110
1011111
1111111111000011
1111111110010101
111001111
1111111001001101
1010101
1111111101101110
1111111011001101
1111010101
1111110111000001
1111110110010111
1111110111100011
1111111100000111
1111100010001111
1111100011100010
1111000101100100
1111011111010110
1111100001111001
1111101110111110
1100101100
100011111
111110111
10000101000
1110101111
1111110110100000
1111101011001111
1111111011110011
100100111
1111111101011111
1001011
1111111010011010
1000111111
1111111011111010
100010000
1111101111001010
1111110110011000
1111101000100001
1111111111010010
1111110111001110
1001010000
10101011011
1001101010
1100110101
110111101
1001111011
1111110111001001
1111110000011110
1111101111101001
1111110011101011
1111110101111111
1000111
110110010
10111110
10110000
11101010000
1000101000
1111101010111100
1111111101010011
101100
101001101
1111101101010001
1111111110100010
111110111
1111111111110100
1000010101
1111111000111001
1010110011
10010001
10111000
111011001
1111010100
100001
1111111010010010
1111111011100110
1111110011110111
1111100110011100
1111111001010000
1100101011
1111111001100110
1011001011
100010111
1000001110
1110010110
1101101111
1101101
1111111110011111
101110101
111100100
1010010111
1111111000000100
10010111011
1010000100
1111111011010101
1110010
11010100
100101000
110001111
1111111011111001
1111111110110010
1001010
1100100
1111101011110111
1111110010011111
1111110011011001
1001001001
111100101
1111111100000011
10111
1111111111100000
1001011100
1110101110
1111011110
1001100110
1111110101010100
11000100100
1111100
1111111111001010
1111110110110100
1111111111000110
1000000000
1111111010101111
1111111010001011
111010101
100111111
1111111000111110
1111111000000110
1111110100101111
1111111011110000
1111110100001101
1111110011000100
1111100100000010
1111111000000100
1111111010010101
1111111100000000
1111111100000011
10000001
1111111100011101
1111101101
1100101001
10111110111
11100111
1111100111000100
1111111100001000
10000001000
1011111
1111111110111110
101001101
1110011111
1111110000110001
1111111010110001
1101
10010110
1111110001000011
100111111
1001011001
11100000
1111111011101011
100001000
1111111010111000
1111110110110111
111
100011011
1111111110010011
1011101
11110011
1111111011100010
110011001
101101010
110101011
1111111101001010
1111111000110100
1111111011111100
1111100110010101
1111110000111010
1111111100100011
1101101011
110011000
1111111001111011
1111111101011001
1111110111111000
1111111101100010
1110111111
11011011010
10110001011
101100000
1111111010101010
100011101
1111111110001110
100110101
1111111111010111
1011001101
101010000
100001010
1111111111000100
100101010000
1100011111
10110000010
101101010
1111111001001011
1111111101001000
110101111
1111101111000000
1111101011001101
100110011
1111111101111010
1111101111111111
1111111101110110
111101000
1001100110
1100101111
11010100101
1011110101
1111111000000100
1111110111110110
1111111111000111
1111111111010111
1111111000100111
11101001
1100001100
1111110111110000
1111111110101000
1111111010110111
111101000
101001010110
1111111101111111
1111110001101111
1111101010000000
10001000110
1111111100000000
1111101101010111
1111100010011100
1101110
1111101101001110
1111110011111000
1111111011100111
100110111
111101100
100001001
1111111111110001
1111110110111100
1111110011000111
1111101010000101
1111111010111110
1111110111101000
1111100111110100
1111111010000100
1111110000001111
1111110101010111
1111111000000001
10001101010
1100111001
10011000001
1111111001001001
1111111010010100
1111110101010111
1111101110110111
1111101011001110
1111111010010000
1111110100100110
101111110
1111111101100110
100101110
1011101011
1110000100
1001001111
1111111101101001
1111111001101101
1111110101011011
1111100101100100
1111101000001001
1111110100111101
1111101111001100
1111101011011001
1111101100010111
1111110101010001
1111110111100001
1111110111111000
1110
0
11011100111
101100101
110010000
1111101011011011
1111101101101010
1111111011110100
101110
1000100001
101010101
11101101
110000010
1110000110
1010010000
1001111101
1011010111
110000010
100001111
1111101101001010
1111110001011101
1111111000100000
1111110011011011
1111111000101101
1111111111011011
1111111010001110
1111101011100011
1111100000100110
1111110110011101
1111100011110001
10100110
1111100101010010
101101011
1111110001101101
1111111111110111
1111111000000111
111
1110010
1111111001110111
1010101100
10101000011
11010000000
10011000011
1001010000
1110111000
1001100101
1111001
1001001000
1111111110000110
1111110010011001
1111110001010010
1111111000011101
10111101
1111111100100100
1111111110101011
10000010100
101001111
1111110101111011
1111101010011000
1111101000111100
1100111
1111110100110111
1111101100100100
1011001
1111110111011000
1111110110100101
1101101100
10110000011
11001010111
10010110110
1111001001
1110001100
10001000010
101001111
1111111100101010
10000001
1111111001011110
1111111001000100
1111110011001101
1111110100100100
10010101
1111111011100110
1000101111
10010001101
11110000010
1001101000
100111010
1111111111011010
1111110010111001
111100001
11110110
1111101101010001
1111111011100011
1111100111111100
1111110011101001
110100
1111111101010100
1101110100
1111111111110000
1111111000110111
1111110101110010
101010110
1011111110
1111111110101110
1111110110110110
1111110100101010
1111101110000110
1111110111100110
1111111011010110
1000011110
10001110110
1001000101
11101000011
1111101110111010
11101000
1111111010001010
1111111110101101
1010001
110100101
1111110000110111
1111101001000111
1111101100001111
1111010101101010
1111110001000011
1111110010100100
1111111001101000
1111110011010001
1111111110100011
1111110001010010
1111110100111010
11111011
100101100
1111110011000111
1111110011011011
1111101100111000
1111111011100010
1111111111110111
100111
1010011101
110001111
1111110001100101
1111110001001101
1111111000111011
110000110
1111111010001101
10000000
10110110110
1111110111100011
1111100011010000
1111010011010000
1111010010010011
1111011101000010
1111010000101110
1111000101101100
1111100000111111
1111101010101100
1111010111000100
1111101001101011
1110110
1111111100010000
1111110101101100
1111111001001110
1111110010101011
1111101111110111
101100011
10011001000
1001111011
1111111001110110
1111101011010010
1111111000110100
1111110111100011
11110010
1110010
10000010010
10100100110
1111110011000100
1111011011111001
1111011101100100
1111100110011001
1111100010001000
1111010101111000
1111000110010001
1111000010100100
1111001100000100
1111011111111010
1111111110011100
110110
1111111111000110
101100001
110
1111110100110111
1111111011110111
100010011
100100111
1111111010010001
110001110
1111111100101111
1010001
1111110001010100
1111110111010001
1111111110000101
1111110100100010
1000111110
1111111110001101
1111011110011100
1111100110011100
1111111111100100
1111101101101001
1111111011000001
110110101
1111101110010110
1111101100100100
1111101011010010
1111111001110001
110011010
1010000100
100100100
101100010
1111111101101000
1111111101111101
1111111100111100
1111111101011111
10001110
10001110010
1111111001001111
1111101010011000
1111110011110110
1111111011000110
110100111
1111111100101110
101110101111
1111111001011010
1111110000110010
1011110111
100100100
111111000
1111111111100101
100011101
1111111111010000
1011110000
1010110000
101101111
10000100101
1101111101
11010101
1111111111101111
101111000
1000001100
1111110011011010
1111111101001010
1111110001111010
1111111110001101
100100100
101000010
1111101100110011
0
100000011
1111111111110000
100000111110
110000011
111101111
1001001000
1001001100
1001110010
1111111111101001
10100010
1001100011
1001111011
111010111
1111111011101100
1111111101101111
1111111101100110
1111110100010101
1111111100010000
100000
1111111000110110
10100101
1010011111
1111111001111101
1111110100101111
1011100110
1111111110010110
1111111100100111
1111111
1111111110000011
1001100
11001001101
101001100010
10000101010
1111111110001101
1111111100110100
1100101011
1111110111111011
1111111011000101
11011111
111001011
1010101011
1000000010
11000000
101000100
1111111111011111
1111110100110111
1111110100110011
1111111110111011
1111111001111110
1111110000110000
1111111010110110
1111100111100010
10000101001
1111111111101011
111100011
1111111110010100
1010000
10100000
110110111
100000111000
10111001110
1111111000110110
1111110111111010
1111111111000100
100101100
101110100
1001101011
100110101
1101011001
1010101110
11011
1111111001001110
1111100111100010
1111110010100110
1111110101111101
11111010
1111110101100111
1111111110010010
110110
1111101101111110
11110111100
1111101111111011
1000100001
1111111110101101
1111111111110011
1101111
11110100
1111111000111111
10010100110
1010110000
1101111011
10100111011
1011110000
10001100100
111110000
1111111011010011
1110010111
1111111100100011
1111111010000110
1111110111110000
1111110001001010
1111111110010100
1000000110
1111111010000011
1111111001111111
1011000100
1011010100
1111111110010101
10101000000
10000001101
1111111011000011
10011000
1111111111101100
1110100
1111111101101010
1111010110
1111110000000010
1111111111000001
1111110101100011
1000111110
1111101010010011
1111101011101011
1111111011111000
1111110110100000
1111101110011111
1111110110011010
110011111
11001101011
1101110
1111110010110000
10000100001
10111111110
1011110001
1011110101
1100011111
11000111
1111111000111000
1111110110001100
10000111
1111111110001010
1111111111010000
1111111110000110
1111111101101001
1111111101011100
1111111100110110
1111111110111101
1111111001001110
1111111001111011
1100100010
1100010
101010100
1111110111001101
1111111000101000
10000101101
111100110
1111110100001010
1111111000110000
1111111111100000
1111111111010111
1111100111111110
1111110000100010
10000100
10110000111
10111100100
1111111110010010
100110
1011000
10101
