1100111
100000
1111111101101011
1000111
1111111110100000
10011110
1000010
1111111110011011
1111111101010111
1111111110000001
10000
1111111101101111
111110110
10011011011
1101101101
1111111111000011
1101010
1111111110110001
10111
10001
1111111111100101
111011
1001100
1111111111011000
1001000
100011
10000110
111111
1001101
1000100
1111111111011110
1111111111111101
100100101
101001001
10110011110
10110111101
10001001101
10010101011
11110100100
100111000000
101011000001
100011111000
1111011001010111
1111010111110010
1111100001111010
1001011011
1001111111
10111011001
101000011001
11000010000
10101111011
1000101001
1100101
1111111111110100
1111111110001100
1111111101100111
10010010
10000001
1100110
1101001111
10001110010
10011001
1000000000
11111110100
110011101011
101111011110
11100000110
1111111010100101
1111100111011001
1111111111111101
1111110100001110
1111110011101001
1111101111010010
11000111100
101010011000
1000000101110
1000110001001
111101001111
110111110010
11001010101
1111111111001001
1111110100000011
1111111111111001
110100
1111111110111000
1111111111111110
1111101000010110
1111101110111011
10100100
100000010010
11101111011
1111110100011011
1000101001
11010000110
10111000100
101000
1111101111010010
1111101011000100
1111101101100111
1111100011101001
1111110011001010
10111001000
10111000011
10010011100
1000010011
101100001010
100001000110
10101010010
10100000000
1010000010
1111111111100101
1111111111010000
1111111110110110
1111111110100101
1111110001010001
1111110100110000
11000010
11100101000
10111011010
10011110110
1111111100100011
10011011110
10111101100
11011101110
11010101101
1110110000
100000100
1111111001011001
1111111101101101
1111100
1111111001110010
1111111000000000
1001010100
10101000011
1100001101
101101010110
100100111010
100010111001
1100000010
110011001
1111111110010100
1111111110011110
1111101101100100
111110
1111111111100001
1111100111011110
110011000
100000100
1110111011
110110110
11111001111
101000011010
10001110001
1000010100
100001110
1111111101100001
1111110111000011
1111111000111001
1111110010110000
1111110011100010
100010001
10010111
100100111
101111001
11011011010
100000011111
11010111
111100110
1111111110000010
1111100
1000010111
110111101
101000000
1100010011
1100101000
111110111
111011001
1111111001001000
1011110100
10111110000
1110110101
1111111101100001
1111111001111000
1111111000100100
1111111100111110
1111111100100010
101011000
1000
1010010101
111001
10100000
10110000001
10111110011
11111010100
1111110000100001
1111110000101001
111111100
11010
11010011011
1111110011
1010001001
1011101110
1010100011
1111101111111110
1111111000010010
1111110110010101
1010100011
10011001110
1010110
100010110
1111110011110010
1111111011110111
1111111100100010
1111110101000111
1000000
1111111000011111
1111110100000100
1111111000111000
10110100
100101011
11011000011
101010110001
1111110011100010
1111101111011010
10111111010
1111101111010000
10000111011
100011001011
10001011110
1111100101000010
1001000
1111111001110101
1111101111000111
1111111000111110
1010111
10000000
101100001
1010111111
1111111101011110
1111111010011000
1111111011110101
1111111011000000
1111111101111000
1111111011110010
1111110110101000
1111110111011111
1001100100
111001000
11010001110
10011001011
1111111110001010
110111001
1111010
110111010
1101001100
110110000
1111101001001001
1111101010100010
1111110110000010
1111100111100110
1111101101011011
1111110101110101
10110111
1111111001010000
1101100011
10111001110
100101011
1111101001001110
1111101011101011
1111110111110110
1111111000000010
1111111010011010
1111111100011111
110100
11010010
1111111001101001
1100110101
1101111110
1111111101110101
1111110111110100
1111111001100010
1101000
1110100110
1111110001011000
1111110010000100
1111100100100010
1111111011011000
1111101100100110
1111100011011010
1111111001110010
1110010001
100010011000
111001010110
101110111001
111101101
1111100111001111
1111101101100001
1111110001011101
1111101101011100
1111101000010000
1111110110011000
1111111100100011
1111110111101111
1000000010
10101100
1111110011000000
1111100110111011
1111111001110010
100110111
1101010100
1110011011
1111111011000010
1110101111
1111111001111110
11000000
1111111100100011
101000101
1000001011111
1001110100100
111111101101
111001110110
100111111001
110111110
1111110000011110
1111111000111010
1111111010001001
1111111011110110
1111111010101101
1010100
11101000
101101101
1111111110001001
1111111011000001
1111111101011100
1111111010100011
1111110100110101
101000001
1111001011
10001101011
11001110110
1010011010
1110000110
10011010010
110111010010
1101000100110
1111101010110
111111110011
100101001001
1110010010
1100001100
1111111011101101
1111111000101001
11100110
100110010
1111110111100000
1011110101
11001111101
1010110011
1000111111
1001010110
101001000
1111111010100011
1100101001
11
110110111
10100010111
10010110011
10011111101
100010100011
101101101111
111001010001
1100011010000
110011101000
10110010100
10000000100
1000
10101110
1111111010011100
1111110110100110
1010100010
10100000010
101001001
1111111110100010
1010010111
101001110
1111111001001000
101110100
1111110000001000
1111100111101010
1111111001111111
100100110
1000101
1010100110
1000101101
11010010
1100111000
10111001011
100101101001
1111101011
10111000111
1111110110000010
1111101011111011
1111110000101010
1111101100110010
1111101111101011
1111111000100110
1111110100100101
11011101
10001
1111110111011110
1111111110101010
100010
1111111010100000
1111110000000111
1111111100000100
1010000011
1111101011111100
111010101
1111101110101110
1111111110111001
110001000
1010
1111110011111110
1111111011111000
100011110011
1110101110
1111111100100001
1111110111011101
1111101100101110
1111111001100110
1111110110000110
1111101010110001
1111111011110010
1111111101011100
1111111101101001
10000
1111111101110000
1111111001011111
100100
1111111101010101
1111111110111100
1111101010001101
1111101101111111
1111101100110110
1111111011001111
1111110011101110
1111100001101000
1010100101
11011
1111110100011011
1111110101100010
1111111001000100
101111
10000000
1111110100101100
1111111101101000
10011111
1000010101
1111111010111110
1111110000011000
1111111101011001
1111110000000101
10110
100011110
1111111011000100
1110101
1111111100101101
1111100110010001
1111110010110110
1111110001111101
1111101101100011
101101011
1111100001011111
1111110111010010
1111100001011110
10110110001
1111111111010100
1111111100011111
1111111100110001
110001011
1111111101110110
11011010
1111110111111110
1111000
110010110
11011011
1000110
1111111001001100
101010011
1111111011111110
1011011
1001101001
110000001
1000101100
1111111000010011
1111110001101011
10000000
100100111
1111110001001000
1111111110011110
1111111101001111
1111110011010001
1111101101101110
11001101001
1111110110110111
1111111001101110
1111011110000110
1111101101010001
1111111011010000
1001001110
110000101
1110010
1010010
1111111011100000
1100101
1011011111
111010100
1111111100101010
1001011100
10101110100
100100111
1111110110011010
1111110110111011
110110
101111011
10000010000
1111111000011110
1011111000
1001111110
1001011100
1111110101110100
1111101100110100
1111111011001001
10110101011
1111101011000001
10100110
1111101110100110
1111101
10001110
100001110
111010101
1001000101
10100011111
1001101111
1010010000
1111111011100000
1011010110
1111001111
1001111110
11010001
1111111101100101
110110
1111111101111110
1010010011
1111111111011000
1101100010
1111111111000011
1111101110111110
1000111010
1111101010110011
1010010
10100100110
1001011
110101001
1111111000101011
111101010
1111111010000111
1111111111111101
111010101
1111111110011101
1100000110
1111111101011101
1111111010110100
1111111110010100
1111110111110100
101010000
1000000111
1101101011
1111110000001101
100000
100011
1100100
1111111000011010
1100010101
1110111011
1111000111
1111101010101000
1111110110000011
1111111011100100
1111110100101011
1111111010000000
10111100
1001111001
1111110110100001
1111111110101000
1111101111100110
1111111110010100
1111111101011000
1111111100101110
1111111001000100
1111101011001000
1111101010000100
1111110001101010
10111000
101100101
1000110010
1111111101101001
10000111101
101011111
101011111
10000
1111111110001010
111000010
10001110111
1111110010001010
110011000
1111111100011011
1111111111011111
1111111000011000
1111111110010010
1111101111101110
1111100100010010
1111100110000011
1111110000001110
1111111110111100
1111110011111000
1111110001010011
1111110101100010
1111110111110100
1111110101111100
1111111001000110
1111111001110110
1111101101001001
1111111110011011
101000111
100001100
101011011
10101110000
1100100100
1001010010
110010111010
100000000000
1111110100010101
11001111
10010101
1110110
1111111100011110
10110111011
1100100
1111110010001111
1111101101001100
1111111110100100
100011011
1111110110000100
100001001
111
1111111101101000
1111110101010110
1111111011111110
1111111100110000
1111110000001000
1111111001101001
1111111010000111
11000111111
1010111111
1001001011
10010010111
1111111111010100
101100010
10000011000
1111101110011000
1111111110011010
1111111111110111
1111111101011001
1111100110101001
111100000
1111100101010010
100110010
1111110111010111
1111111001011101
1111111101101101
1111111111101100
11111000
1111111111010011
1100100010
1011001110
10110111
1111111101000001
1111111011011111
1111110001010101
100110000000
100101001010
10010110100
1111111101101010
11100000001
1111011100010110
1111101010100001
1111111011011000
1111110101110110
1111111111111110
111
1111111110011100
101111101
10110011
1111011101101111
11010101
1000101111
1111111011010110
100111110
1111111111011000
10100110001
1110110101
1111111001000000
1110100100
110010001
1111110101001100
1111100100101011
1111110111010000
10001010
1110100101
10011101100
100110001010
100111011001
1111000100
1111110101111110
1111110110101000
100111100
1111111110110010
1111111110100111
1011100
1111111101111111
1111111001100011
100000101111
101000010110
11100111010
1010010010
1111110100111100
1010000001
1111110000011101
1111101101000001
1111100110110110
1111100100100110
1111110000110110
1111101101011101
1111100
1110111001
1111101100101001
1111111011100100
10100101
100101011010
11010110010
1111110110101101
1111110001101100
1111111111010010
1110110
1111111110100011
10001001
1111111110110001
1111111111110100
1111111110101011
1111111000101100
110110111
11011110101
100011001101
101010010011
101111010100
1111011111100001
1111110110111000
1011011100
111100101
1111111000000100
1101101101
11111001001
1111101011011011
1111110010110001
11000101100
11110101110
100111110010
10110001000
1111110100101010
1111111111110110
1111111101010100
11001
1110111
