1100111
1011100
1111111101101001
10000100
1111111110001000
1000110
1001100
1111111101110110
110100
1011011
10010000
1010110
1010101101
1111111001
1111111110110100
1111111110110111
1111111101110000
1111111110000000
1101101
1111111101100111
10100101
1111111110001011
110111
1111111110011000
111010
11001
1111111110010111
1100
10101111
10111
1111111110110101
1111111111111001
111110010
1001000100
10011011101
10101001100
1111111111010111
1000110110
10101100000
101001110
100011110
111001101
100000010111
11101
1111101110011000
1111110001110010
100101101000
100000100001
100100000101
100010011011
11000110111
1101000001
1100100
1111111110101000
10001000
10011
1111111110100100
1111111110000111
10001010110
1000000100
11101101011
1011010100
1111111010110000
100101000000
1100011011
1110001000
100010110100
101000000111
11011000110
110011101100
101100000010
110010011100
100001010011
111110010
110100
10001111101
1111111110110111
10001011000
11100100
1111111000101101
110010
1111110001100010
1111111101101010
1111111101111010
1101100
1111111101010011
100100010010
101000111011
100111010
1110010
1011101011
11111
1111111101001100
10111010101
1111111111001001
1111111011111000
1000110100
1111110111010110
1111111100010101
1111101111001100
1111111000110111
1111101011010101
1111111001000111
101001010
1111110110110110
1111101010111110
1111111111001011
101011
1110101000
1111110010101011
100110101
1111111111001001
11001
1111111100101101
1111111010001011
1111111110000001
101010100
10101110
1111100110010100
1111110010001011
1111111110111111
1100011101
1111111100110101
1111111000101000
1111111010100010
1111111000010011
1111110000001000
1111110011100110
1111111010100101
1111110101101001
1111110101100110
1111111001101101
110001101
1111110001000100
1111111000110111
1111101111100110
1111101110011110
1111100011111000
1111010111010000
1111111011001010
101000
1111
100011111001
1111110101001011
10111010
1111111111110100
110011000
1110110
11001011
1111110111010010
1111110000001001
1111110010001101
1111111100001101
1111110100000101
1111111100110110
11011101
1111110100010000
1111111000011100
1111101110101110
100101000
111110011
1000110100
10010001
10000110000
1010100110
1111111111001110
1111101100000010
1111110011001101
1111111110111010
1111110101100001
1111100101110110
1111110110100111
111110011
1111100010011110
1111111001100101
1111101110110011
1111110011001111
1111110000101010
1111101001001000
1111111011111111
1111111010110010
1111101000011000
1111110011110101
1111000
1111110011001000
1111110100111100
1111111111111001
11111100
101110010
1010
1011111
1111110001010000
1000101
1101111110
1111110000111101
10010100101
1010100
101011
1111011111100000
1111101110111101
1111011001100000
1111111011110011
1111110001101111
1111110111011111
1111101100110011
101
1111110110011001
11001
1111110100000001
1111111000011110
1111000
1111110110011010
1111110011010100
100110100
11010111
1000000000
110100110
1111111101100001
110001
111101
1111101011001111
1111011100111110
1111100111000001
10000010000
1111110100101111
1101111101
1111110101110000
1111110110101011
1111011100000011
110001101
1111111111011010
1001110101
1111111001010001
1111110011011010
1111111011001010
1111111010011010
1111111110001000
1001010011
1111111111011000
1111111011001100
1111101110000110
1000000101
1111111001111001
1111111000101011
1111111001011110
1111111110000100
1001000100
111000101
1111100000001010
1111000001000111
1111011101001110
1111101001001010
101010000
1101100000
1111101111010101
1111110100010100
1111011101110010
1111111010100010
1111110001101100
1111111011001011
1111110011100011
1111111001101010
1111110100111110
1111111010000001
1111111011110100
11000011
101011101
1101011101
100000111
101000
1111111111011111
1111111111001011
1111111010001010
110100101
1111111010000111
1111110010001001
111111111
1110110100111011
1111011111101111
1111110110000101
101111110
11100011010
1111101011011101
1111100010110100
1111101001000111
1111110111000100
1111111010111111
1111111000110011
1111111110111011
1111000
1111110010110010
1111111100101100
101010
1100111000
11111010
10100100100
10111010
10011101
1111110111010101
1111111001100110
1111111011011000
1111110001000000
1111110110111101
1111101000011111
1111101100111111
1111011111110111
1111110100110011
111111
110101100
1111111001110101
11101000101
1111111101000101
1111110000110110
1111111001001111
1111110011101001
100111101
10010001
111011000
1111111111000011
1110001
1001100100
10111001
1111000111
10011010000
1011101011
1111110000000100
1111101011100011
1111110111011000
1111111110110000
10110100
1111110001101111
1111101110001111
1111101111111101
1111100101100111
1111111100111110
1111111111001111
1110
11101111000
10010110001
1111111010111011
10101010
1111101111101110
1111110110010001
1111111010100111
1001001000
101111
1111101010001011
100000011
1000001110
100010111
10010101001
1010100100
1101010001
1111111000111001
1111110100110001
1111100101100110
1111111010011101
10001000
10101011
1101
1111110101111011
1111110111100101
1111101001110010
111110101
101110100
1111101111111100
11110110100
1011000100
1111110011000011
1111111010010101
1111111010000100
1111110000000100
1
1111111010111010
1111110110011010
100010101
1111110
110000101
110111111
1010010000
1100001001
1111110110010000
1111101100011100
1111110100001110
1000111111
1111111111101001
1111101000001111
1001110111
1111111010110001
1111101100011101
1111111010001001
1111111011001010
1001001101
1001001110
101010101100
11001101000
1100101101
1111111011011101
1111111000101011
1111111000000000
1111111011101111
1111111111010101
10000011
1111110101010101
1111111111111001
11101101
111110000
1001011101
1011001000
1111110010000110
1111101011100100
1111111101100000
1111111110111000
1111110000010011
1111111011010101
1001000010
1111110101110100
100000010
1111000001
1001111101
1110101110
1111111101100111
1100111001
1110101010
1111111101011101
1111001011010100
1111100000111101
1001101
11000011
1000101111
1111111110011001
1111111100101001
1000101
111001101
1100010101
100101000
1111111111110011
1111101110001101
1111101000100110
1111110111111100
1111100110100111
1111110011101110
1111111110001001
101011011
1111101110011111
1111100100100010
1111111011111000
1111110100101111
10001110001
1110110001
1110100
1111111001
1111110110100011
1111100001110001
1111010101000010
1111111010111111
110010111
11101101
1111111101000111
110111
1111111001101111
1101010111
1100100101
100000110
1111111010111100
1111100111111011
1111101110001101
1111101000110100
1111011100010110
1111101101101010
1111101100100110
1111110000010001
1111111011010100
1111100000011010
101011110
1111011110101100
10100011
1110100010
1111111001011001
10010111000
1111100010010110
1111111010101000
1111110110100010
101011011
1111111111001010
1111111101110001
110011010
101111100
1111111101011010
0
1101000001
1111111111100010
1111101110110111
1111101000000100
1111101000111111
1111110111101001
1111101111110111
1111110001100110
1111111010000111
1111101000100000
1111111011101010
1111110010101010
1111101001010010
1111100000110101
1111111001010111
1000001
1111101110110001
1010110010
1111110100011110
1111110011010000
1111111100110010
1111110010110110
11100001
110000011
1011110
111111
111100001
111100101
110001001
1111111101111111
1111100101110001
1111110000111110
111
100
1110
10000011
1100010000
1111101110000100
1111111110010101
1110111
1111100111111110
10000010
1100010011
1111110101101000
101111010
100110110
1011011
1111101010101111
1111110001111010
1111110111100100
1111111001010100
1110001001
1111111111001100
11000011101
10111101
1100010110
1000011000
1011110111
1111111101110101
11001011
1000111100
1111111100011000
1011000001
1110010
1111111010000110
10110010100
10011001111
1010010001
1111011001011111
10000100000
1101110
1111100100111000
1111110110100010
1111101011101010
10010000101
1111100110011011
1000011011
1111110000111111
111101110
1111111011110000
100111001
1011111110
1000101000
11111010
11001000000
1100100000
10001110011
11001010110
1111000111
1001111100
110110001
1010101000
1011101000
10011010110
1000000000
101011010
1111100110101001
10011001010
1010010011
1111110010101010
1111010011111010
1111110101000001
100000111
1110010111
1000011101
10001100101
11100100
11000110
100110
1111111100010110
1111111101101100
1101011010
10011101001
100110111
110001001
101100111
10001111001
1001010101
1111111101111010
11001101100
1111011000
1010111000
11000111100
1110111101
1111101100010001
1111110101101110
111100110
110111010
1111100101111111
1111110110110011
1010011100
10000111000
1111110100010010
1111111110111011
1100011
101
1111111010111100
1111110110011000
1111111011011111
110
111100000
1101010100
100101111
101011111
1001010100
1100101010
10110011000
100011000000
1111110010100000
1001100110
1001111000
10101110101
1111111101000001
1111110011000101
10100100
10011111
1111100110011110
1111101011111111
101111101
1111111010000100
100001
1111111100001110
1111110111111100
10101110
1111111011001111
1111110010100011
1101000
101111101
1000001111
11101
1111111011011000
100111010
1001111111
110001101
10000101011
110110000
111000100
10000111
1011010010
10001000101
10100101110
1111111101111101
1111111101101000
1111101
1111101001011111
1111110011001100
1111111010101010
11001100
1111000
1111110010100011
1111110110000110
1111111101010001
1111111100001000
1111111101011001
1111110000011001
1111110110010111
1100111100
1111111011100010
1111101011100100
1111101101011000
1111110010111101
1111111000111001
1111100110
1101111101
1010010
111010110
10010110010
1001111100
10001111001
1011100
1000001
1111111101010110
1111110100010000
100101000110
11101000100
10100100
1111110011001001
1111011110100111
1111101100110011
1011000
1111101111010100
1111100111110000
1111010111101000
1111101100111101
1111111010110010
1111011110110110
1111000110101001
1111000100001011
1110111110011010
1111001001101000
1111110101100100
10001101001
1011100101
11011001101
1000011111
1111111010010100
1101100
1111111111000100
1111111101100010
10010000
101111
1111101100010100
1111010100101111
10111101010
101000
1111100110111001
1111111001010000
1111100010001111
1111110000110001
1111011110011100
1111000101111000
1110110100001100
1110011111111111
1110111110011101
1111000101001100
1111011101100101
1110101111010001
1111001011001101
1111010011000110
1111101001001111
111000100
1111010110110110
11110100
101001100
1110011
1111111110111101
1111111110111001
1111111101101001
1111111111011101
1111111101110010
1110000000
10000111100
1111110011010101
1111111001010000
1111110000100011
1111101100100001
1111100
1111110000110110
1111011111001111
1111011100001010
1111001011101000
1111011111100110
1111110001001100
1111101000100110
1111100110101001
1111111010010010
1111110011000111
101001111
1110100001
1101010000
10011110
1111111111111111
1111111110001110
1111111101011100
