1111111011001100
1111010001000111
1111111011011110
1111111100111000
1111011010101011
1111110110001110
1111110010000110
11011110010
101111110110
1111010011000110
100000
100010101010
1111110100011110
1111111001101001
1101000010
1111100110011101
11100010111
1111010001011010
1111100000101010
1111011110
1101101100
1010010
1100100
1111111111000010
100010101110
110010101101
100000001110
1110101101
1111111001010100
1001011011
