1111101011010010
1000100110
1100010010
10011101111
1011001001
1111110101000011
101000100
1111101111111011
1110101101101110
1011010001
1111100100111001
1111110010100010
101001111
1000110
1100100100
1000000010000
1111111110100011
1001001001
101011011110
1111010101010000
1111111000111100
1111110001101101
101101110000
1111111101101001
1000000111
1111100100111101
1111001111100111
1111111111100101
1111111101001110
1111110101101111
