10111001
1010011111
1111101010000101
1111111001000010
11010010010
1010001000
10101000000
1111110110110001
101010010110
100001000000
1111111011101110
1111101111010000
101110001100
100010000111
1111111111100101
110000101
1111011011010110
10100001001
1111111010100111
101010110
1111010011011111
101100000
10110111
100101101111
1111101010100011
1111011111111110
110101001
1111101010000100
100000100110
1111100011111000
