110000110
11110110111
10011110100
10001101000
1001100100
11011000110
1111110011001011
1111100101110011
1111010011001100
1111110101101010
1111000101010110
10111101001
1111111000001111
1111111011010100
1101001101
101000100110
1111111100101101
1111111101111111
110111110000
1111100001101000
1010
1111111001000000
1010011111100
11110100011
1001001110
10101101011
1111110000001010
1111111000111001
1111101010011001
111001011
