111110010
10011100011
1111110001001000
1000001100
1111110101010011
1111100000101111
10000110111
1110000000
1111100110101001
1111111110110010
1111011010011001
10000
10011100110
1011001000
11000110111
11010011010
1001111100
10011001
101011111110
1111101010011111
1111101011101000
1111100110110001
110101101000
1111100000001110
10000011011
1111100101010001
1111100011111000
1111100101000001
1011111111
1111010111101010
