1111011010111011
1111110011101000
1111110001100000
1111101000111001
11111011010
1111001111110100
1101100100
1111110011101100
110000111011
111010
101111110001
1111111111100000
10000101110
1001010
1111101100001100
1011110100
1111101101100110
10110101111
1111011011100010
1111110100111111
1111100100110001
11001011010
1111010101111010
1110111111100000
1111110111110110
11111100
100111010100
10000010100
1111110100111011
1111111101011001
