1111010111101101
10001111100
1111101001110010
1111111010111100
110001101111
1111001110010111
100000011110
1111100110111010
1000010011
1110101010
10111101011
1111111001100100
100000101111
1101101101
1111100001010011
11001000101
1111100110000000
10111010100
1111100000001010
10000100001
1111001100010001
11001000011
1111111101010001
101000111
1111110000110100
100010100011
1111111011010110
1111111111011011
1111110111001101
1111101010100000
