10001110100
1001011110
1110011010
100101101
100001011
100101001110
1111010010111100
1111111100101101
10000100000
1111111111100110
1111110101110101
1111111011010110
1111000111000100
1111110110010001
10101010000
110000101000
1001110101
1111100010110000
1000111010
1111100100001000
100000000111
1111101001000110
10011111101
1000100001
1110011010
1111101101101101
1111101010000001
1111111111111011
1111100101011101
11010110010
