101001100000
1111011101100110
100101001110
1111101010000111
10000001010
1111101001001000
111100110
100101100
1111101100010001
1111110001110111
11000100000
100001000000
1111011101011000
1111111111110010
111100000
1111101001101000
1110101101
1111100001011011
1111001100011010
110011111110
11110010000
1000000001100
1111011110000110
1111100111000100
1111101010000100
110011111101
100100000100
110110001
1111101111111010
101000000001
