10101010
1111010101100011
1111111010011111
1111111010100010
1111110111111011
1111101100100001
1010000101
110000001
10011010111
1111100000000010
10100010
1111110000010100
1111111011100111
1100010101
10110011
1110010100011111
1001010111
1111100001101110
1111111100101101
11110000010
111001000
1011011111
1111110111000101
1111000110011011
1111111101010000
100010101001
101001001110
11111101001
1111111000010010
1111110010001100
