1111001101000100
110011001
1111010001010101
1111010110000011
10110101100
101001010011
1111001101000110
101100000101
101101101
1111101111111111
1111111111100011
100110001100
1111011010101011
11100000000
101110001001
1111111010110110
1111011001001101
1111111101010101
1111111111010100
111000
100110001111
1111011011101001
1111010110000100
11010001010
11000011000
1111010000001011
1111010110010101
1111101100011110
1110111011101
110011111001
