110100001
1111101001110101
1111011000000001
1111001111101001
1111110110001001
1001101010
1111000000000111
1111101011010001
1001110000100
110011101011
101001111110
1001001000100
11001101
1111100001101111
1111101100
1111101111011001
1111110101011011
1111111101001010
1110110000101110
1011100100
1111100110101011
1111100111000001
101011100
100000011001
1100000001011
10110111111
110011010011
1111100001000110
1100101
1010101010010
