101
10100001
1111111110011100
10010000
10100100
1111111110110101
1111111110111001
10001000
1111111110101101
10101100
1111111110110010
1
1111110001011011
1111101110111010
11001011
1111111111110100
1100011
11101
1101
1111111111001100
1111111101111101
1111111110000101
1111111110111000
1111111111100000
1111111111111111
1111111101100010
10001100
1111111101011010
1111111111101010
10011010
111010
10010111
1111111010011101
1111111000100010
1111101100011100
1111101001101110
1111111100011000
1111101111000000
1111011101010111
1111010100010101
1111001010110010
1111011110100011
10101010000
1111111101111101
1111111010111011
1111011101111010
1111001101000000
1111000100001101
1111000011100010
1111010101011111
1111101001010110
1111110111010100
1111111110110101
1111111111011010
1111111110110010
1110011
1111111110000001
10000101
1111101001100111
1111111100110000
1111101101111010
1111101001100001
1111100111111011
1111011011010001
1111100111011110
1010111
1111110101000010
1111101010101111
1111110111011001
1001010001
1001110011
1111111110010010
11000001
1111111111011001
1111100101011010
1111001110110111
1111010110000100
1111000101100110
1110111111001101
1111111001110101
11100010
1101111100
1110100
1100110
1111111101110110
0
1111111110101010
10000111
1101010101
1111111000010100
1111111100011111
10010100010
110000111
10001001001
10100011000
10000111
11100010
100010000111
10001001110
10011111110
1000000111
1111111010100010
1111111100101110
1111110100101010
1111111111100000
1111101000100111
1111011001000010
1111100101000000
1111110001100011
10001011000
1111111100001111
1001001
1000001
1111111111101101
1111111011001111
10001101010
1111001100
1000
1001111000
1010110001
1010101100
0
10100100001
10101111101
111001101
11001111100
10010110101
10010110110
1110110011
1111110110100111
11111010
1111110001011111
1111111110010010
1100001
100101
1111111010010000
1110110110
1111111111111011
1111111101111000
1111101100011100
10101100
1111111110111110
1111101010011100
10010110101
1001101011
1101000101
1111111010000100
1111101001010011
1111100101001011
1111111100111011
10011011010
11001011100
100001
10000101
100000010
1110000001
10101001
1111110000011000
1111101101111101
1111110010011001
1111111101100110
110100011
10010011011
10000111011
101100111
0
1111111101100111
101111100
1111111111000100
1000011011
11000100010
10101010111
10011010110
1111110010101000
1111111111110110
1111110000100100
1111101011001001
1111110011111001
10101010101
1001100011
1111111111010111
1010110
110010
1111111100100010
1111110010100010
1111110110011000
1111111000110010
1111111111100011
1111110100010100
110111001
11101001
1111111100111011
1010100110
101010
1111110101011011
1111111101110000
1111111101101110
10110001001
11000000011
110111010
1001000010
1111111111001110
1111111110110111
1111111100000000
1111101101000111
1111101101111111
1111110101010000
1111111001101101
1111110100110011
1010101
1000000000
1111111100100010
1111110110010010
1111110111010101
1111111000010110
10111111
1111111100011011
10000001111
1101000010
1111110101101101
1000101110
11110011001
1110111
111100101
1111101001000001
11010111001
1111
1111110000111011
100000
11000101111
1111111100011010
1111101111000101
1111110100111111
1111110001010110
1111110000111011
1111101101001101
1111110110100001
100001
110100000
1111111010010111
1111111111011111
1111111110010010
110101000
111111010
110101101
1111111110110010
1011011
1011100111
1111111000
11110001100
1111101011100110
1111110110010000
10100001
10101111110
1111111100100001
1111110010100011
1111111000110110
1111110101010101
1111101110011111
1111011011100011
1111110101001110
1111101111011011
1111101111011000
1111101110010111
1111101001101001
1111101011001001
1111110100010011
1111111000100110
1010000011
100110
1111111111011111
1111111010101010
1111111100101010
110010
1111111101011010
1100001110
1111111110100111
11111011100
111001100
1110100001
1101
10111111000
1111110100110111
1111110011001101
1111100000100101
1111001101100010
1110110110110000
1111100001101000
1111011111110001
1111100001001010
1111101100111010
1111100101100110
1111110001011101
1111100101011111
1111110110000100
10111110
101101001
1111111110001100
1111110100010111
1111110111010011
1111101111101111
11110011
1111111010111101
1111100000
10111010100
11101011010
100010011
1111111111101011
1111111111001100
1111111010111101
11000110
1111110100111001
1111001101011110
1110110000101000
1111011001000001
1111110001110111
1111110000010000
1111110010100110
1111101100000010
1111110011101000
1111110011111001
1111110011111010
1111110000011110
101111100
1111100
111010101
1111110011101110
1111101111111110
1111111011011000
1111111100110000
11001110
10000001
11010010011
1100101110
1111100110011011
1111110111001110
1111111110110001
1111101011110001
1111101111010011
100011110
1111011001101101
1111000111010001
1111011110100101
1111101111111010
1111111101001111
1111110011110101
1111111001100000
1001101011
11010111010
101011001
10001
10101011
1111111001010110
1000111
1111111110000111
1111110010100001
1111101011000000
1111100111000010
1111101001001001
1111011110110010
1111110010100000
1111100010011101
1000010011
1111111100011100
1111110101101000
1111100101111100
1111110011000100
100001001111
1111110011101010
1111100110100100
1111101011110111
1111111110011100
110111111
110010110
110110111
1110111000
1100011001
101000
100110100
1111110000110000
1111110111000011
11000100
1111111101000011
1111100110111101
1111011110011101
1111010111111100
1111010001111011
1111010111011000
1110111111000011
1111010100101110
1111101101111110
1111100011000011
1111111001100011
1111110000111010
1000000110
110000011
1111110101001111
1111110111111000
100100
1011010101
1101110011
100000001
1111111001001010
1111111111001100
1111111110111100
1111111110010011
11011101
1111111011101111
1111110110010111
100110111
10000001
1111101111010110
1111011100010101
1111111001111101
10010011
1111101111001001
1111011101111000
10001000111
1110111001
1111101001111110
1111111011110101
111010
10001110100
1111100100011000
1111110000001010
1100001000
10000011000
1111111101111011
101001100
1111110111001000
1111110100110000
11000
111110111
1100100001
1111111100111011
1111111001001011
1111111001011110
1111110
1111111100010010
1111101100011110
1111101000011000
1111110111111111
1111110001111111
1111111000101010
1111101011111100
1111000101
10100001011
101100110
1111111111110101
100011011
10111001
1111110010010001
1000011
11010010101
1010000101
1111111101010011
1111110100101001
10000010
1111111110000000
111011001
1100100100
10101011000
101110001
1111111010000111
1111110101111010
1111111011100101
1111111100010111
1111110110110110
1111101101111111
1111111010101110
1111110101010011
1111101101010111
1010111111
1111111010000001
1011100100
11100000
1011001
11101100
1111101100011011
1111110111011111
1001000
10010100000
10000001001
1010000000
1101011
1111111110000101
1000100010
10000011100
10011001011
11011111100
10000011000
1111111110000001
1111111011011001
1111111110011110
1111111010000111
1111110110100101
1111110100000100
1111111001111101
1111110011100110
100001111
11010000
1111110111110111
1010010
1111111001100111
1111111101001110
100000011
1111111000111000
10100100
1100000100
1011111110
1111010100
1011010110
110100110
1010011011
10101100101
1110100011
11000010110
100010110010
10010010101
100000000
100100
10001000
101
1111111011110100
1011110110
1111111011000000
1111111001111110
10000110010
1100110110
100100111
1111101110111001
11000010000
1111111110110100
1111111111010010
110100000
100001010
100111110
110110000
100111010
1001100110
10010000100
1111111111010100
110101101
1011001011
10001010100
11000111011
111110110
10001000110
1110100100
1000110010
111110000
1111111011110100
1111111001110101
1111111100100111
1111110000111110
1111110100000111
10100110111
110101101
11111000
110101010
1111111111011100
1111110011111110
1111101010110001
1010101000
1101010010
1111111010110000
1111111110100011
1001110010
1111100100
111111001
1111111100010001
1001111010
110100111
101001000
1000110001
1010101011
1100101100
1110001110
1101000100
11111101
101110100
1111110010001011
1111111100000010
1111000
100000101011
1111100111110111
111010
1100111100
1111111111000100
1101011100
1111111010111100
1101010010
1011000000
1100100100
1111101000110000
1111110101010100
1111111100000010
11110010
1111111111000001
1011000
1111111100001011
1111111101111111
1011001100
1001100110
101000101
10011011
1000100000
10000100100
1100111111
1001111
1010110
1101001111
1011100000
110010011
10011010
1111111110001000
1111111100010001
1111111101001001
1111110111001010
1111110110001101
1111111110111110
1111111011001101
1111111000000001
1111110110111011
1111111010110101
101
1111110000110010
1111111010010001
1111110111100000
1111111001100100
10001000
1111111000011111
1111111111000111
111100000
1111111101110010
1111110110
10100010001
10101101000
11000110111
11001110111
11100110001
111011110
10111000111
1111111110110001
1010011
11001
1011001001
101111
1111101100100000
1111111011111000
1111101100111111
10111101
10001011
1111111110110010
1111110101011011
1111110110000001
1111111011110001
1111111110100110
10011
1111111001010110
100111100
111000000
1111101101000110
1010110
10111111010
10100110101
101010011
1111110110110000
1111111011000001
10000100100
100000010101
10010000
110010
1111111101110110
100110100
1111111001101001
1111101111010100
1111101111100101
1111100110101011
1111111001001000
1110010101
1111110110111010
1111110001001100
1111110111010110
1111111011001000
1001001
1111111001010101
1111101011110001
1111100000101111
1001100111
1111111110010011
1101010
101011001
1111110100010111
1111110011001110
1111101010110001
1111101011000000
10001110010
1010010000
10001001
1010000
1111111110010001
1111110001011011
1111101001001010
10011110001
1111011
1111101011001000
1111110011000100
1111110100101110
1111110011111101
1111011100010000
1111001100111011
1111111101111010
111111111
1111101000010011
1111100110110011
1110111010
10101010110
1011110010
1000110101
1111111001101101
1111111010110001
11110000
1111100011110101
1111100110111011
1111111110101110
1010001
10011011
1111111101110011
1111111110101100
1111111101010011
10001101000
100101100
10100111110
1111101111110000
1111010100111001
1111000000101010
1110110100100100
1111010010111000
1111010001011101
1111110111000010
1111111011101101
1111101010010000
11100011
10101110001
111000100
1010110101
1111101011010010
1111101101110100
1111111100010101
1111110101010001
1111110000110101
1111111001001100
1111111101011111
111010
1111101
100100
1111111101111000
101101
1111111101110000
10111011
11111
1111111100100111
1000001
1111111000101110
1111110010000011
1101100100
1111111010110111
10100001
1100101011
10101100100
1111110010010010
1111110101001110
1111101100011110
1111101011001110
1111101111111101
1111111010011101
1111111110010010
1111110111010010
10011110
1111111101011111
1111111111000111
111000
1111111101010011
