101001
1111111101010100
1111111111101010
1111111101011001
1110101
1101010
1111111111011111
1111111111010001
1111111110110000
1111111101011010
10100
1111111111101010
1000100011
1101010110
100101111
1111111110001011
1111111111110110
1
1111111101101100
1101101
1001101
101110
1111001
1111111111110101
1011
110
1111111110111011
1111111
1111111111010011
1111111110110000
1101010
1111111110110000
111111111
1010010101
11001000000
11011011110
1011110110
10110011101
100111000101
111110010010
1000011110101
1010000101001
1111100110000100
1111101001000101
1111110001011100
100111100101
101111101010
100010110011
10101111000
10001100010
10000001110
1101110010
1111111111110011
11101
1110011
100
111101
10011100
1001110001
1111010101
10000110010
11011101100
111010010
110110011101
101010010111
11110000000
1010101101
1111111111111000
1011110110
1010110100
1001000111
1101000011
1111000010
10000100010
1111111111100110
1111110111111101
1111101110111111
101111010
1111110111010111
1111110100100101
111000
1111110000001001
111010
1111111101111110
1100100
1111111101110110
1111111100101110
1111111111111110
1111111001000111
1111110100110101
1111110110001010
1111011001011110
1111111010001000
1101111001
1001000010
1111111111100110
1111111010101001
100101011
101110100
100100011
100011000
1111110110010111
1111101000110010
1111111010011100
1111100110100010
1111110000110101
1111111010011100
1111011010010011
1111101100000100
1111100111001100
1111101111100101
101110
10010001
100111010
1111101011011010
1111110100110010
1111101100011100
1111110110001010
101101000
1111110100011110
1111111001110011
111111101
1111111111000100
1001100
1111111110110101
10010011
111011110
1100010
1111111101001001
1000110101
1111111011010001
1111111111000101
100111100
1111101111000010
1111110000110110
1111110110010000
1111001011010010
1001
1111110111001110
10100001111
1111111111111110
10000101
1111110001100000
1111111001001000
1111111000101110
1111110111101100
101100111
1111111010111011
1011
100000
1111010000
1001001101
11010110
11111101
1111111111011111
1111110110111010
1111111001011101
1111111100111100
1111111010000001
1111110101110100
1111111000011110
1010001001
1000011011
1111110101100001
1111011111100101
1111101000010100
1001110101
10101011010
1111111101011001
1111111111011011
1111100101111111
1000001111
1000101000
1111111010011000
1001110
1001000
110111011
1111110110000101
1111111111010010
101010101
10101011
11100111
1110001010
11000101
1111111111111011
1111111000110011
1111111010100010
1111111100010100
1111111111100001
1111110111001101
111000111
100111100
1111111000010101
1111100111100110
1111110100010111
1111101010100100
1011001
1111111100100110
1111110101100011
11010011
1000101
1111110000
100001100
110001110
110000100
1111111100110001
100101011
10010001001
100111100
10101100010
1000010101
1111111110010000
1111111101000111
1111101110001110
1111111100010100
1000
1010001000
1101010101
1111111011101111
1111101111000110
1111111011001001
1111010001000101
1111110011111110
1111110111001101
10110111000
1100001010
1111111110001000
110111101
1011100
1111111111111010
100101001
101011001
100010000
101111
10010010101
1010100001
10101
1101100
10010110
1111110111001110
10101110
1010100000
1111111010001010
100110011
1000100110
10100011
110011001
1100111000
1101001011
1111100100110111
1111101100100111
1000100
1111111111110111
1111101110111101
1111111011100000
1111101100011011
1111111101110100
111011111
1111111000010100
1111111010110111
1111111001111001
10101
1100011000
11110010
110011010
1001010001
1111110010001110
1111100111110111
1111111100110110
100110111
111001000
1101101010
1111100
1111101111001011
111111110
1100111
1111110010101000
1111110010100110
1111101011000100
10101000010
1111111110011010
1111101110011101
100001
1111110011101001
1111110101101000
1010000101
110011010
1111111000000100
1111101100011100
1111111101111011
1111111101010001
1111111101000110
1011110101
1111110011010100
1111100100111100
1111110000100000
11000000
1111111110100000
1111110100011000
1010000111
1100100
101000100
101010101
1110100000
1010010001
1010111110
1111111110001010
10111101100
100001100
1110001100
10111110
1111111110010101
1111110111101110
1111111011001110
1111111010110010
1111101111100111
1111110110101111
1111111010001010
1111111010010011
1111110100000110
1111100110000110
1111001010010100
1111011000010110
1111110101011011
10111111
1111101001001100
1111110000100101
1111111110010110
1111111111100111
1011110110
1000100
101010000
10110110100
10001011000
1111011010111011
1010100100
100110111
1010100110
1000000110
1111111001011111
1111111011011100
1111111110100001
1111111110011110
1111111000111111
111000110
10011111000
1111101110110001
1111100100000110
1111001110010001
1111001111000001
1111100101001000
1111111000111001
1111110101101110
1111111000110000
1111101110000001
1111110010010110
1111111100000011
1111111001111101
101010100
110111111
100010001101
110101110
1111100101001010
1111101110000101
1111111010111001
1101111000
100101011011
1111100011100011
1111101110010101
1111111101110001
1111111110000010
1100101
111010101
100101000
1111111001110110
1111011010111011
1111011111001101
1111110011011000
1111101111000001
1111110101011000
1111110101101000
1111101101001100
1111101100111011
1111110011011000
1111101001100010
1111111000111011
11110010
10000000100
100010011011
1111111101101111
1000011001
1111001011
1111111110010000
1111110100001010
1111101000000010
1111101010111111
1111110000111100
1101010
1111111001001010
1111111001001011
1101110
1111101101101001
1111100101000010
1111101010010101
1111101101011000
1111110010000010
1111101110100100
1111101011111011
1111100110010111
1111110000001100
1111110110000110
1111101000111110
1111101110000111
1111111000011000
10100011110
1111111101111111
10001000010
1111011111001101
11000011001
11011011111
101000100
1111101110110110
1111010111001100
1111100111010000
11000010
110100100
1111111000110010
1111111100010001
1111111110010101
1111111011101010
1111110100010101
1111100110010000
1111110000110010
1111110011010111
1111101110101010
1111101011101111
1111101101000111
1111110001110001
1111110010100110
1111101100111111
1111111010111100
10100101000
1111111100010011
1111111101010100
11110110
1111110010100101
10011101100
101101101
10011010
1111110001111011
1111110001100001
1111011000111011
1111111010000111
11010110
1111110110011100
1111110001010101
1111111001000101
1111110001100100
1111110010011010
1111111001011010
1111110011000011
1111111100101101
1111110000110100
1111101100110110
1111110110110110
1111100101101000
1111010111101000
1111110100110001
1111111101010001
1001011010
1011001
1111011011
1111110101110110
1100111
11000010010
1101011
11001
1111110011111111
1111111111110101
1111101110001011
1111111001101100
1111111110000100
1111110111001110
1111111101101001
1111111010110001
1111111000001101
1111110100100000
1111111100101101
1111111001111010
1111111010001000
1111101111110110
1111110001111001
1111101111001000
1111100011010100
1111101101110100
1010010001
111101101
1111111111111011
1000001101
10100011
1111110001111100
11100000011
1100100111
1111111010111010
1111111000000010
1111111011111001
1111101011011111
1111111100100101
1111111011101000
1111111111111010
1010001111
110100011
1010100001
10110010011
1100011110
1111111100111100
11000010
1111111001111111
1111101100111100
1111110100001001
1111110000100111
1111111001111100
111010101
10001100
100111010
100111111
10000000100
1000100100
1111111011000011
1010010011
11010110000
10100110
1111110100101110
100111001
100110101
1111111001011100
1111111110101001
1111110000001011
10010100001
100
1111001101
10111000011
10101100111
10011101001
10001001011
100010010
1111111001000011
1111101111010000
1111111011001111
1101111011
1111111000010000
1111111011111111
1000001101
1111100000
1111010110
10001101001
1111111101001111
110010101
1011011110
111101100
1111111110110001
1111110111011111
1100010101
11010100110
1111111100101010
1001001101
1011010001
100101001
1001010111
1010101100
10111110101
11011111101
100011000010
10011111100
10000110
1001100111
1001110111
1000001110
1111111000100010
1111110111100000
1111110001
1000100111
1111111000111000
11010011111
10001010001
100001110010
110000111
1111110000000110
1111111110010010
101
111111011
101000110
1111111110110001
10000011011
1111111101101010
11100
1001011
110111100
1100110101
10001011001
10010111011
1010000101
1111011100
1011101110
101100010
1011001000
100011011
1010000011
111100101
1111111000110100
1111111101011110
10010101010
10010011100
100010011
1010001111
10011100
1111111100100101
1111111011000111
111111
1111111010110100
1111111101101101
1001010101
1100010
1000110001
1001101011
101101011
1111111011001010
110001
100001100
101101001
100001000
1111111110001110
1111111111010110
1111111111001011
1010000001
1111111011001010
110000
1010000010
1111011
1011011111
111100
1111101110101001
1111101111101100
10101001
1001000
1001100
1111100100100001
1111111100000101
1111111110110100
11100
1000010000
1111111001001001
1111111101001000
1111111110011000
100100
111101110
10011000010
10101010011
1101000010
11001110
1111111101111101
11000101
100101100
100001011
101000100
110011001
11011101011
1100100010
100111011
1111110001111011
1111101001010100
10011101
1111111101101001
1001101
1011110101
1001
10000011110
1101010010
1101111100
1111110010100000
110001001
1101101111
1110100100
1110000100
10101100000
11110100
101111101
1010100000
1011
1111111001110000
1111010
100110110
1011001110
11110000
10011100100
1000010110
10010010010
10000111010
11001000100
1111111110101001
1111111110010010
1111111110111101
1100001111
100000100000
1001101101
1111111000100010
1000111011
1011010101
1111110110101110
1111100110100111
1111110000100100
1111111111011100
1111100110011111
1111101010000110
1111111000011010
10101011
1111111000000111
1111100000010111
1111001111010111
1111011000000100
1111110010010001
1111111010101111
1111011110010101
1111011101010001
1111101101011101
111010111
1101100000
1111111111011000
101110
110001
1101011
1111111001001010
1011110010
111111
101110011
1111111111111001
1111111010110101
1111111110000000
1111100100101100
111000111
1111111111001101
1111011110110110
1111110010100100
1111101101000000
1111100000001111
1111010101010001
1111010010000111
1111110011001100
1111100000000101
1111011110000100
1111111101011111
1111100111010000
100110111
1101010101
1111111110101101
1111111111100001
1101101
10
110010
1
111001100
10000100100
100100001011
101000100011
11001001111
100111011100
1000010100001
1000111010001
1000101011001
1000100011001
11111101111
11001111100
11000001101
1001111100
110010110
1000010101
10100111100
10010110011
1000011110
1111110000010011
101100
1111111101010001
1000001
1111111111101101
