10011111
110110
1111111110010111
1111111111100010
110011
1111111111110100
1100000
1001001
10001101
1000011
1111111111000011
1001001
110001
1111111111010110
10001100
10101010
1111111110111101
1001011
1111111101011011
1111111101101010
0
1111111101100111
1101010
110
10000100
1001100
1111111101101010
10100010
110111
10011001
1111111111010001
1111111101110101
1111111010101000
1111111001110101
1111111010101000
1111101010011001
1111100110011111
1111100000010110
1111100110011101
1111110111010100
1111111010001000
11110110
11010101110
110010111
1111111110111000
1110111111111100
1111010001001111
1111010101101010
1111011010011011
1111011101100011
1111110101101010
1111111110011110
111011
10000110
1111111101100100
1111111110001111
10100000
1111111110100101
1111111111000111
1111111011101011
110110
1111100001111000
1111101111100110
1111011001001110
1111011100101101
1111011100110100
1111110010110000
100111011
1111111110011110
1011110001
1011001001
1111110110100100
1111110100011101
1111101011000011
1111111111011011
1111001
101101010
1111001111111000
1111101010101111
1111111001011000
1111111111000110
1110100100
1111111111000110
1111111101010100
1111111111101010
1111111110100101
10101101010
1101100010
1111010101
10111001110
10011101000
100011000101
1111000100
10101010
1100011000
1110110110
11100110
1011000010
100111
1111111101000001
1111110100001010
1111110010010001
1111110110000111
1111110011100010
100110111
1111111000110111
1111100101111001
1111101111101101
11111101001
10001111101
1111110110101110
1100100
1111111111110100
1111110101010010
10011101110
1110010111
1111111011011010
110010101
111000100
11101011
10010001111
1000011110
10100001100
1100000
1111111111110000
1011
1111111101110000
101011111
11111
1111110001010000
10110011
1111111111110111
11111100
1101111010
1111111000000111
1111110110101011
11000100
1001111111
1111110010110110
1111101110000001
1001
1111111110100110
1111110011000111
101000100
1111111101111010
10011000001
1111111111111111
1000001111
1111111100001110
1111100
1111101101011011
1111111011011001
1111111100101111
110101111
1111111011110100
1000010110
101100000
1111111100000110
100110100
110001110
11000111
1110010
1111111010100101
1111111011100101
1111111111100010
111000
1111101010011110
1111111000100110
1010001
110000110
1111101011111110
101000100
1111111000000001
1000101
100101
1111111110010110
1111111010010010
11000110
11110100
1111111001010001
1111111011011011
1111111001000011
1111111111000101
1001000
1111111110011111
1100001100
111111110
10010001
1111111010000010
1111111100100101
1111111011111001
1111111100101010
10001100
1111110001110100
10010100101
1111111001110000
1111111100111110
11100000100
1111110010010011
1011111101
1111111001101001
11001000
1111111110100010
100011000
101011011
1111111110110010
1111110111111110
1111111110001110
111001
1111110111001111
1110111
1111111010101101
1111111010001100
10000
1111110001000110
1111111000010000
11001011
1111111100000000
1111110100010100
10000110001
110110100
1111111101110011
1110110110
1001000100
1111101011010101
10010001111
100010111
1111111111101010
1111110111010110
101111001
1111111000000110
1111110101101001
1111110110001111
1111110110001011
1111111010101100
100100011
1111111011100011
1111111011010110
1111111111110010
1111110111111000
1111100101010011
1111101011010110
1111111010100101
1111111100110100
1001111
1000100
1100111001
1010101010
1111111110110011
1111110111011000
100011111
1100001010
1111111101001101
1011100111
1111101100100110
1011100000
1111110011010011
1111110100001110
1111111000001001
1111111111011111
1111111000110100
1111110010101100
1111111000110100
101100
101101101
1111111100101101
1111111111000010
1111111000000010
1111111100101110
111001111
1111111110010010
1111110100011110
1111111110011000
1111111011101001
110111110
1111111000011101
10000100
10100111010
110111010
1011101
1111111010010100
1111100011111101
1110010
10101011
1111100101000000
1111110110101111
100111110
1010101
1111110010111101
1111111011000010
1111111101001010
1111111111000010
1111111011011000
1011001101
110000110
1111111101000100
1000000100
101011110
100100111
1111111101010010
1111110100111100
1111110010000111
11001011
100001100
10110000011
1111001110
1111101101101111
1111101010000001
1111110011001001
1111011111111101
1111111000
1000100001
1001110000
100
111011
1111111101100110
1111110111101011
1111111010001101
110100111
100111001
100111010
1000101011
11001011
10100100
1111111011101111
101001101
110001000
1000111000
1111111110110010
1111111000111010
1111111100011001
1011110
10100101100
10001011111
1111110000100000
1111110111110100
1111111010110000
1111011100101011
1000010
1101110100
1011101010
1111110110100100
1111111011101100
1001011101
1001000011
111101010
11100111
1111111110001110
11101100
111101
11011110
10110001
111000101
1111111110111000
1001001001
100100011
111
100001011
1111100001100101
1111101111110111
1111100011101000
101
10111000001
1100100011
1111111111100111
1111011001100000
10110010010
100010101010
100000011011
111011001
1000011000
100001101
100001000
1111111111110100
1111110101011011
100010
111100
11100
110001
1111111101111001
1001001100
101111001
1111111101000100
1111111110111001
1111111011100110
1111110101010100
1111101101001101
1111101010011011
1111010011111011
1111011010001000
110101111
1111111110010011
1111110100010100
111011
1110111100
11000100001
110111101
1111011110110000
1111101110011011
1111101011101011
1111101101001111
1111101110001001
1111110010001111
1111111000100010
110010010
1111110101011100
1111111000010101
1111111100101001
1111110101011101
1111110110001110
1111110111011011
111111100
1111110110111010
1111110110110011
1011000101
10100110001
1111110000001010
1111110001000011
1111101100101110
1111101100101010
1111110000011001
1100100010
110101110
111111001
1111110111010001
1111011100111100
1111100111010101
1111010001010101
1111001100011010
1111001011000000
1111100100001000
1111101101000111
1100000010
1001000100
1111111010011110
1111111100000101
1111111110101011
1000110110
1000100101
100000100
1111111111100011
1111110100100011
1000001110
1001000001
1111110111000001
11000010
1010001011
1111101101001011
1111101110110000
10110111
1111110001101101
1001001000
1111100101111101
1111110000111101
1111110101011101
1111101000100110
1111011001011101
1111001101001000
1110111100001110
1110111010101100
1111010110000001
1111111001111001
1111111010100000
100011001
101001010
1111111111010110
1100110010
1111001000
1001111001
1010101111
101100111
1111111001010111
1111111111000101
1001101
1111010101001100
11100000
1111111101011001
1111111001000100
10110111
11000111100
1111111000111011
1101010001
101111100
1111111000011000
1111110001110011
1111101000101101
1111001001000101
1111000011000100
1111001110101000
1111011110010110
1111100000010101
1111101011100010
1111111010101000
1111111110010101
1111111101001100
1001001001
10110
1010110101
10010110
1111110101000000
1010001101
1111111101001010
1111101110000111
110100111
10010011011
1000101
11001110000
10010000011
100101111
10011110010
10001110001
11010110
1101100011
10111110000
111111101
1111111000101001
1111101010100010
1111101001000101
1111101011100011
1111100111101100
1111111011011011
111001111
1011000101
110011100
11000011
1101100110
1110
1000010101
1111111110100100
1111110101001000
1111110001000101
1111110011011110
100010110
10001010100
1110111010
10001000100
100010100
11010100111
10101111011
11111100111
11011110010
11110001010
100100011111
11010010100
10111101001
100000001
1111111010001111
1111110010001010
1111111011011001
1101101
1111111111110010
1111111011011111
10100000
101110010
1111111000100111
1101101010
1111111110000100
1111110011110110
1111011010101010
1111110011011010
111001
1001010001
1111110101000111
1111011110
11101101010
10001101101
10100100101
10010001101
10000101100
10110110101
10000001111
10001001101
10010011111
1001010001
11110011
1111110000101010
1111101110111011
1111111011111100
101101001
1111111010100100
10010001
1111111010100010
110011000
1111101110111100
1111111000100010
1111100011100010
1111100101011001
1110010011
11100
1111110000110010
1111111000100000
1010111001
1100011
1011011101
1111111011101010
100010010
10111111
1111111101011011
1111100
110000100
111001100
1001110010
110010101
1111111111001010
1111110111100011
1111111011011000
1111111101010000
1111111010000101
1111111011010000
1111110000000100
1111110011001011
1111111100101111
1111111111010011
1111100111000011
1111110011010100
100111000
10001100
1111111111001000
1111110011100101
11011111
1111110011111100
1111110101101110
1111111010100110
1111111010110111
1000110
1111110100100110
1111101101100000
100100001
1111110110101110
1110111
1011001000
110111000
1100100
1000100000
1111111110011111
1000000010
1111111100111100
1111111010011110
1111110111010000
1111111000
1001110101
1111011011111011
100101010
111011110
1111111111110110
1111111111000011
100110110001
1110000100
1111111001100110
1111101000000101
11100001
1111111011000110
1111110110010001
1111111010011010
1111111110111111
1001111000
1111111011000101
100001111
10000011
111111
1111111000111100
1011101011
1010111100
1111111100000101
1111101111111110
1111110010101110
1111100001011000
1111101100100000
1111110010000011
1111111100010101
10011111
100100
101
1111001
110101010
1111111110101001
1000110010
1111110010010111
1111110101001001
10001001
11010010
1111110101010010
1111110111110101
11110101
1111110110101010
1110110
1111111110000110
1111101110010001
1111101111101101
1000001111
1111110100010001
1111101010110111
1111111011000000
1111011011001110
1111101111110110
1111011110001010
1111101010110101
1111100100001010
1111101111101100
1100100
1111111110111011
1111111111110010
10000001011
1111110110010111
11011100011
1011011001
1111111101000010
1111110110011100
1111010101010101
1111000110011010
1111100101100010
1111101000001011
1111111111011000
1111110111111101
1111111110001100
1111110101011100
1001001010
1111101001001100
1111100100010011
1111100100010010
1111101100111001
1111101010100000
111110
1111011010101001
1111110101111111
1000100001
1111111100100100
1111111101011010
1111111101011001
1110100
111101
10000100011
1111110101101101
1101100101
10011000011
1101111101
101010111
1111111100011110
11011001
1111111100110011
1100
11011111011
1010000110
111101110
1111111111000001
1111101101101100
1111101111001000
1111100001100110
1111111001010011
11100110011
100110111011
100001001100
1111111110010011
1111111000110100
1111111110001011
1111111101111011
1101001
1110001
1111111101011101
1111111111011000
1111111000000101
1111110110101100
1111110101000000
11000101
1111001110
100010001111
11001111100
1111111100001000
111000001
11111100101
100001011100
1111111001100111
11100010
1000000100
1111011110001100
1111101011000101
1110111
11111001
11100101100
10010101011
1111111110001010
10000110
1111111101101101
1111101
