1111111111010000
1110001
1111111111010101
1111111111011011
10000001
1111111110111011
1111111110001000
1111111110101011
1111111111011000
1111111110101000
1110001
100
11010110
100100010
1111111110101101
1011011
10
1111111111001101
10010100
1111111111011000
1000
1111111110111010
1111111110010011
10000110
10100111
10011010
1111111101010001
100010
1101010
1111111101101100
1111111110110101
110101
1101100
10000101
1101010010
1100111111
1011100010
10000010110
10000101000
11000010110
11000011100
10111111000
1111011101
11110100010
100001011101
11100111111
1011010000
1011001011
1001001010
101101101
110110111
101100001
1111111110001100
1111111111011111
1001000
1111111111010010
101
1111111111000011
10010100
101110001
10111011
100010111
10001111100
100101011010
101010111000
110110101110
10100111000
1111111001
11110001001
111011110001
1000010110101
1001100000011
110001100110
1111111010100001
1111111010001000
1111110110111010
1111101110001010
10111110000
1100110100
1100000001
110000111
101010010
1111111101011010
1111111110011010
101011
1111111101010010
1111101101110001
1001
1111110011110111
10000011110
100010000010
1011001
10001000110
10011000101
10111011100
1111111101001010
101001100
1111111100111011
10110101100
110001001010
110011011100
100110111011
1000000001
1110110
10000010
100000010001
111001111
1111101110001011
1111101010000011
110100110
1100101010
10010000
100001
111100111
1111110110101100
1111100000110001
1111101110001101
1011011110
1111110111101101
10001101101
100101011
100101001101
1010100100
1111111101111111
1111001111
1111111100101010
1100100001
1101001111
1111111101001111
1111111001110101
1111110111010111
10011011011
11011001000
1100000011
1110110011
11001000100
10100010011
10100110110
11011001111
11000001100
1111111101011110
1111111101011011
1111110000100111
1101010000
1011111
1111110101000000
1111110011111110
1111110100010101
1111110110100100
1111111111111010
1111111100111110
1111111111111000
110111011
11
11011100
1010100
1100100000
1111111100100011
1001110101
1100100010
10011100110
10100110000
11011001
100010001
111100000
101010100
1011001101
1111111111110010
1111111110110010
100011010
11101011
1010000010
1111110011011010
1111110100010101
1111110110101001
1101010
110011110
1111101
1111110100000000
1111111100010001
101101001
1111111010000110
1111111100001010
1111110110010010
1111110101001001
1111110110100001
10000101001
1100010011
1011111010
1001010100
1010110110
11100101101
1111111000101101
10111000010
110010000
1001001001
1111111111100111
11010010
1111101010111110
1111111000010111
110110110
1011100101
1111111011011100
1100110001
10110101
101011100
1111111010101100
101
11100100
1111110001001001
1111110111101011
1111111110010100
1111110110101001
1111111001000001
10001110111
1010001000
1111111110110001
111101111
1101110011
10001001010
1010111100
1001001000
1010100
100100011
10101011
1111111010010101
1111011101000010
101001000
1101001011
1111110111111101
1111111110101011
1111111001001111
1111111101110111
1111111100000101
101001001
11000111
110010111
1010011010
1111110111001010
1111101100001110
1111111101110000
1111111100010001
1111100
110100
1011110111
10100010
1001100001
1001101
1000001110
1000111110
10101111000
1000100010
10100
1111110100101011
1111111100011001
1111101011101000
1111111011000111
1111111010110110
1111111010000010
1111111010010100
1111111100011101
1011110
1111110110000000
1111111000111011
1111111010010000
10100101110
1111110111111011
1111011111100000
1111111011100100
1111110010000100
1111111011101111
1001000010
1111111001110100
1111111110000011
1111110111110111
1111111100010011
110000001
11000011000
10100110011
1111110110000010
100010010
1111111100000110
1001011101
1111011000110110
1111111000011101
1111101100110001
1111111010110110
1111111111011001
1111111001011110
1111111010011110
1111111011101100
1111111111011010
1110010001
11101010001
1111101111101110
1111101000101010
1111111001011000
1111111111000100
111100
1111110111111000
1111111011101100
1111111001011111
1111111101101011
1111111101101101
1110111110
100010111
1101001010
1101101101
1111111001100010
1000011110
1111011110010001
1111111100111001
1111111100100000
1111101011001101
1111111111111110
1111111001110010
1111110111100011
11100110
1011010001
10010010000
10111110110
10000011
1111100110111000
1111101101001100
1111110111111001
1111110101101110
1111110010111100
1111110111101000
1111111110101010
1111101001001101
1111100011001111
1111100111011000
1110000100
1111110001111010
11001011100
10111011
1111110111010101
1111100111000010
1111110111111100
1011001001
1111111011011101
1000110101
100101011
1111111100010011
111001
1100111011
1100100000
10011100111
1111010100
1111111010101101
1111101101100010
1111100111111100
1111101111110011
1111111011111010
1111110011011010
1111111101101110
1111111001110010
1111110011111100
1111101011110011
1111101011000110
1010101011
1111101110101001
11010110
1111101100111011
1010110101
1111110100011000
10010010
11000011
1111101111110010
1011010001
1111111101011101
1111111110100001
11111101
1000110110
1001000111
1111111011011111
1111110111011110
1111100101100000
1111101001110000
1111101110011101
1111101101011110
1111110101110010
1111111100000010
1000111101
1111111111101011
10110010
1111101111000101
1111110100000001
111000
10011110011
11001000101
10111001101
10101111010
1111100111001000
11100011
11000100101
1111101110100011
10100100001
1110100
1111110010101010
101001010
1111110100000101
1000
1111110011000101
1111100101111100
1111101111111111
1111110100010010
1111110001010111
1111111100110100
1111111011001100
1111111010110100
1111111100110100
1000111100
1111111001011011
1111101010011111
1111111110101100
1100101111
11001000111
11001000100
1110011111
10011011101
1111101011010110
11010111100
1000100101
1111111011111000
11001000
1100111000
1000010111
111110101
1111111101101001
1111110000011001
1111100011110101
1111110100011111
1111110011111110
1111111101001101
1111110101010010
100100
100010111
100010
10010100000
1101100110
1111111000011001
1111111001100110
1001100010
11111000001
11000001110
1111101001100101
1111110101000100
1111110001001101
1111111111000011
1111000110
10110111101
1011011000
11000000100
10111011001
1110001010
1100001000
10100111
1111101110101111
1111101000100110
1111110011001011
1111111101010101
1111111011010001
1111111110101010
1111111010011110
1011000110
1100101101
1001001
101110000
1111111001001011
1000
10100110
11110001010
10110011101
111100101
1111111000110011
1101000
1000111010
1111101110100010
11100111101
100110001111
111100100011
111101000010
111100001110
110110000111
11111111001
11000011
1001010100
1001100001
1000110010
100000111
1111111000110000
111001011
1111010110
110011010
1111111111111011
10000010010
1010010111
1111110110010100
1010100101
100110110
1111010111111110
1111100000010001
100101110
1111101010010110
1110100011
1111011110101010
10001000011
100000100000
111111101100
1000000100011
1011100011000
1101011100100
1011100000111
110100110001
11000000011
11010100011
1001111000
1001011100
101101011
1111111101101011
100011100
10010101010
10000100111
1011101101
10011100110
1001011001
11010001101
10000000110
1111100000010011
1111011001000111
100110011
111101101
1111111111101000
1111111010111111
1011010110
1011010000
100001110011
10110110111
1001111100
111010010100
111100101011
1000001010000
100011101111
11001110100
11011100110
10011100100
1111110001
111000101
1100110010
1111101110
11010111
110010100
11001000011
100001011010
101100010000
1111001110
1111101001010000
1111110100011011
10010001100
1111101
10100101
1110111
110001100
1100101
10011110001
1111110001000000
1111110101101101
1111110100101011
10001110
10100011000
11011000111
10111101110
1111111010
1111111101011001
10000010100
110011101
100001101
1011100011
11110000
110101010
111100100
10010000
1011000100
1110001001
10001001
1111110010111000
1111110110110111
1000101010
1111111110000000
1111100000000001
1111111110101010
1111101001100100
1111110000010001
1111110001111101
1111101111111111
1111110001001001
1111101010010011
1111101100011011
100011110
101011101
1010101110
100011011
1010111111
1111111100010101
1000101011
1100101110
10001010100
111110011
1000010101
100010100
1011011101
10011001
1111110100001001
111100111
1111111110000100
110000010
1010100011
1111110111111111
1111111000110111
1111011111101111
1111110011111000
1111100111100111
111100010
1111110011101110
1111101001111110
1111101101011100
11101111
1010100010
1101010000
10000111
111110100
1111111101010000
10000001100
11101011111
100111000
110110101
10011001111
101011000
1111111110011111
1111111101101110
10011011
11001011
1111111101111111
1111111111110111
1111111111100110
10001011010
1011110100
1111100111010000
1111101010100111
1111110110010001
1111111101101011
1111111001000110
1111111001000001
1111111100101011
10011101
101100001
110000110
1001100111
11000101110
1111111010
10011010110
1100001110
1111111110110010
1000000110
10001001100
11000100
10001110100
1111110100000011
1011001000
1111111111101001
1111111101111011
1111111101010001
1000111
1111101101100101
1010101
1111100111011111
1111101101000001
1111111001110000
1111111010111110
1111111001110101
1111111100101101
1111110011111100
11101111
1101000010
10001011111
10100101001
1100011010
1111111110110100
101001110
10010001101
1001011101
1111110100000111
1111111010111111
11010010011
10100010010
1111010111
11000000011
1010010001
1111111101100011
101110
1101010
100111010
1111101001010001
1111110010011011
1111111000001100
1110001110
1111110111001010
11111000
111010100
110011011
100011110
110011111
1010110001
1111111011111100
1111111101110001
1111110001110001
1110110
1001001011
10111101
1111111110111010
1111111000001001
100111001
11000000100
1111111000011110
1111110001011001
111001011
1111111101101001
1111111110100010
10001011
1111111111011110
1111110100110111
1111100110111000
1111010001110101
1111010000010100
1111011111010101
1111111000101100
1111011111010101
1111101000011000
1111110111100010
1010100110
1111101010000110
1111000011010100
1111001000010111
1111011001110101
1111101100111000
1111101111101001
1111110001111110
1111111101111011
1111110110010111
1000001101
1111111001011110
1111110010111101
1111110100111101
10010010
1111111111000110
1111111111010010
10110
1111111111010101
1111111111111111
1111111000100011
1111101111100000
1111011100100000
1111010100110000
1111110010001001
1010001010
1111101110001010
1111110111011101
1111110101001100
1111100000101011
1111000001000111
1111001100011011
1111010101101000
1111001000110001
1111011010100010
1111101001101000
10011001000
1111000011
100011110
100011
0
1111111110011111
1111111111000010
1111111111011100
