1111111111110000
1111111111011000
10011011
100010
1111111111111011
10100000
1111111110100100
1111111101110000
11
1111111101111111
1101101
1111101
1111111100101101
1111111010001010
1111111110111100
110010
1111111101011101
1111111111011110
1101
10001110
1100101
10010000
1111111111000011
11001
1111111111001011
1101000
1111111110100101
10100011
10010101
1111111110010100
1111111111111100
1111111111101100
1110011
101010110
10111101000
11111011000
10111011010
11100010111
100011101100
1000100100
100011111
1110100
100010101011
1000110111
1111111110101000
1111110011011100
11100000110
11111000111
1111111110
1101100011
1000101110
1000010111
10100010
1111111111010100
11
1111111111101111
1000011
11100
110110000
1111111000110111
1111111001000001
11101000010
10100011001
100110100101
110011001000
101111010110
11111111010
101001101000
100011001100
100000000110
11101110100
11110100010
100001011110
10110110001
101011011001
10011101001
11001101010
111010000101
100011001010
11100000001
111011010
101011011
1110100
10011001
1100011
1111111110100011
10110110110
1000011100
100000111
1111001110
100001111110
10100011000
1111111110101001
11000111001
11001110
1111110111001101
1010111100
1110010010
10010101010
100001100100
10100001
1111110010000010
100000010010
100100110111
10111101100
10110010101
110000100101
101100100010
11010101000
1111110101010110
1111110011110010
100100
1111111110000010
1111111111101101
1110111001
11011100
1111111001110001
1101010111
1111110001110111
1111101000010001
1111110011101111
1010011000
110001000
1111101110111100
1111110000100011
1111110111110111
1011000100
11100110
101000000
1111110010011010
1111110110111101
1000000001
10110010011
100101110
1010110010
1111111001000010
111101011
1000100100
1111110011100100
1111111101101111
1000011
1111111101101101
100011010011
101010101
11001101
1111101001101111
1111110000000111
1011110010
1010111110
10001100011
1111111001001100
1111110100101110
111010110
100111010
1001001111
1111111101101110
1010001001
1111111100001100
1111110011101000
1111111100101011
1111000010
10001011000
1111111110100010
1000110
101010000
1100001100
1111101001111001
1111101001010000
1111111110001000
1111111011001110
1111101101110001
1110001
10001000001
1111111101010100
1111111001101000
101001100
1001010101
10111110
1111111001001101
11000100
1010101110
1111111011001010
1111110011011010
1111111001001001
1111111101000110
1111110010101000
1111110001001110
111100100
1011111011
10010010100
1001110100
1101111000
10110100101
10001011001
1111110100110001
1111101000101010
1111111110000011
10111
1111011110100101
1111111010001100
10110100000
1001110101
1101110
10011011
1111110111010101
110000110
1111111100110110
1111111111111100
10101110
1111110000000001
1111110110000011
1111110010110111
1111101110111000
1111100111001000
1111110101000010
1111111110010100
1111111111010010
100011010
10001111110
10100101101
10110010001
1111101110
1010011101
1111111010110111
1111111110110100
10101111110
1111101001111001
1111111111010110
1111111011110011
1010010100
1001011001
110110
1000111
1010011
1000110011
100011100
1000000111
1100010
1111101001101010
1111100101101010
1111011110001111
1111101101111010
1111101111000110
101010001
11110101
1111111011010010
1011000000
100011110111
1011001100
110
1010000001
1111111010000111
1011011000
10010100111
1111011111010101
1100100110
100100010
11111010
100011111
1111111101111100
10111011
1111111010
100010110
1111111011010011
1100111
1111111101011111
1111110101011000
1111101001011011
1111101000000000
1111111000100100
10000101
111000001
1110000111
1101110001
1111111100101110
111011000
11001010011
1100011001
10010010100
1111011100110001
1111001101
1110000011
1111111111000001
110111111
10010001000
1111111110110101
1111111110111100
1111111100010000
10101001
110001111
10000110010
1000000101
1101100001
1011110011
11001000
1111101111100110
1111110101101010
11100110
1110011000
11111001
101001100
11110001
1111001101
10001110110
10001001111
1111111111101001
1011001101
1111000001
11100010
1111101100000100
1111111010100101
11110001000
10010110110
101001110
100110110
1010010
10011000
110011100
101011010
1011001000
11100111
100
10011010101
1111111100111101
101010
10011010
11101100
10000111
111101100
1111111111010100
1111111111011000
1111111011000101
1101000011
10100011110
10110001011
110101010
1010
10000100
1111101011011010
10010010001
1111110000001001
1111110011001011
1010110100
1101100011
1110001111
100011
1111111100001101
11100001
1111111100011001
1101010100
10101001111
1001100110
1110001000
1100110001
111111
1111111101001000
1111111101011001
1111110
1000001111
101000111
100011110
100010111011
1011010100
1000100001
1010000111
1111111100011101
1111111000111110
110010010
1111101010100000
110100
111100100
10111001
111111011
10000001
1111111000110110
10010001
1011110
1100100110
10011101010
10010011110
1001010100
1111111110100001
1111111001010010
1111111111110101
110110111
100110001
10101000
1111111110101111
1000001111
11010111
1111110011000100
110111000
10011011110
1111101011010100
10101011
101111000
1111101101100000
1110111
10011
1111111001000110
1111111111101010
1111111001110101
101110000
10001000101
1000001100
110100
1001010010
1111111101101001
1000000011
1111111010011010
1111111100100100
110001101
1111111111111101
10101110
1111111000010000
1111111111101001
1111101010011110
1111111100101001
10100100110
10101010100
1110011101
1111100111010000
1111111110000110
1101111100
1111110001100001
1001001
1111110000111111
1111101100100101
1111110010001100
1111101111000110
1111111011000011
1000001010
110100111
1011110111
11001001010
1101001101
1100010110
1111111111110010
1000010
11100001
1111111010111000
1111111000010111
1111111111101100
1111101100110111
1111101111100111
1011
1111111111111110
11010101
1111110110001000
1111111011110011
1111111111101000
1110111101
1111111110111001
11001000
1111111000001010
1111111111011000
10011
101000
1110011101
1111111100110001
1111110110001101
10011000001
10111011111
10010001110
111111001
1111111100110101
1111111000000011
1111111000010111
1111110011101011
100111010
1111111110110000
1111111101010100
110111011
1101101100
11010010100
1111110011110101
1010111
110001000
10110100011
1111101101000111
1111110001001000
1111110011001110
1010001101
1111111101110001
1000100001
1000100110
1001000110
100111001
1001110001
10110010011
10010101101
1000101011
1111111101111001
1111101100100001
1111110111011000
10100011
1111111000110001
1001110011
101001111
10010000
100010000
10011100100
1111010
1111110110011001
1111110101100010
111000100
10001011101
1111110101010010
1111110101011101
1111110001010011
10111110
11000000
1000001100
11100011
1111111101100101
1111111000110011
10011001000
11010100101
1001000011
1111111000001101
1111101000110110
1111110000110101
1111111000000010
101001011
1101000000
11111111
1111111100010011
1111111011111011
1000100000
10010011110
1111111000000110
10000000000
111111011
11101001
111000110
1111111010001100
10011011
1111111110010100
101111010
100010011
1111111111100110
1011111111
101100010
11011100
10011001
10100101110
1111111011111100
1111111010001010
1111110010101011
1111111001100011
1111110111010011
111001111
1011111
1000001110
1100100110
10110000011
1111111100100000
11001000010
1110111100
10100000011
1111111101100101
1111101001100110
1111111000111100
111101010
1111101110010010
1111110100010010
1100111
1111111111010001
11100001
111001101
1111111111100011
10010001
100100101
1111111100000010
1111110011110101
1111110111101000
1111100111110100
1111110010011111
10111110
1111111110100100
10000001111
10110001111
11011111011
10000101001
1111110000101101
1111110110100011
10100111011
1111111111100111
1011011110
1111111110111100
1100101
1111110000110001
1111110000100010
1111111011101110
1111110001001101
11100001
1111111001111011
1010111100
101110101
11110101
1111111100000100
11100001
1111
1111111100111000
1111101100001010
1111111101011000
11100001
1111111111100110
1001011001
11001011111
100011001
10010100111
1111110011110101
1000000
1111110011100001
1111110110001101
1011010100
1011010100
10000110111
1111111000011011
11111101
1011101000
1111110001001001
1111011
1111111110000011
1000000110
1111111101110101
1111111001101110
1111111100001100
100011101
1111111110101001
101110000
1111101101010110
1111110001011101
1111101101111010
1111110011101101
10000100000
1000100001
1111110111000001
1010010101
1111110011011000
1000001011
1111110110110110
1111110000101010
1111111110101000
1110110
1101100011
1111111000001011
1111110100001001
1111111100110110
1111110011001011
1111101101101110
1111110011010111
1111110110001101
1111101011010010
1111101111100000
1111111000010011
1100
1010001
1000101110
1111110100001101
1111101000111010
1111110000000011
1111110111111000
1111111001101110
1111101010010110
1111101001100100
1100100110
101111011
1111111110000010
1101011
10100010
100110
100
1111111010000110
1100011
1111011110000001
1111110010010011
100110101
1111110111101010
1111111110110001
1111110011100001
1111111011001010
10000111011
101101
1111111111101110
1000011011
1111111111000000
1111101111010100
1111100110000111
1111110100111011
100111
1111101101001011
1111110100011010
1111111001110111
1111110010111001
1111111010010011
1111101111011110
100111001
111000
1111111101010101
1111111111110100
1111100111001111
1111100110111101
1111111000101101
1111111011101010
1111110110100011
1111110101110001
1111101111111000
1111110000010010
1111101101001001
1111110101100100
1111111001110100
1111111100000110
1111111110101101
1001100000
1111110101001010
1111111110000111
1111111110101110
1111100110100110
1111001001110001
1111001111111110
1111011011100111
110001
1111101110000100
1111101111101101
10001100
1111111101010011
1111111111011010
1011100
1111111110110010
1111101010010010
1111010010011001
1111110101010000
1111011101001100
1111101110000011
100010000
1111010000111010
1111010001000000
1111010101010001
1111011110110100
1111001101110001
1110111010000010
1110101010011011
1111000010011101
1111101000110000
1111011110011000
1111001000111001
1111001101100010
1111010101101110
1111101001110110
1111100110011101
1111110111001011
1111111111101000
1011111
1111111111011101
1111111111001000
1111111111110101
1111111111111111
1111111111110111
10001011
1001001111
1111101101101110
1111111011000100
1111110111100001
1111110010100101
1111011100011000
1111010111110001
1111011101111100
1111110011110101
1111101000101010
1111011111111011
1111100101111011
1111101011010000
1111101110100110
1111110001110100
1111100110110110
1111100001111011
1111111100000000
10111010001
10100100
1111111110101111
1111111110100011
1111111101101000
