1111111110011010
1001011
1000101
1110100
1111111111101101
10101111
110110
1111111101011110
110010
1111111111111010
1111111111010100
10000111
1101111
1000011100
101100100
1111111110110100
1100000
10001010
1111111111000101
1111111111000000
1111111110010101
1111111111101100
1111111101111111
1111111111100101
1111111101101000
1111111111001111
1001001
1111111110011110
10000101
1000010
1111111101101101
1111111111110110
100110110
10100000
1110111011
1110100111
1101100001
11100100111
101101001000
101101111001
110001010011
110100000101
1111110010010110
1111100101111001
1111101111110110
1110101001
111101011101
100110110011
11011110010
11000011011
1101000001
100100100
11110
10100
1100000
1111111110000110
1111111110110100
100010
1010100111
1111111111010111
1011010101
10111110010
100110101010
110011011110
101101111010
111111001000
101010001100
1100001101
1111010111
1010100000
10010111101
101111010
1000001
10000010001
1111111110100011
101101100
1010111
10101011011
1010010110
1111111110110111
1011111
1111110011111000
110
110110
10101000
1010
1111110110100101
1111110100111010
1111101111101110
1111110110111010
1111111101101101
1111011100011001
1111110010010010
1111111110010000
1111111101100101
1000001011
10100100
1111111000100100
1111111000001101
1111100010111100
1111101011011010
1111110111111101
1111100100110010
1111110101101001
1111100010000001
1111110101110101
1111111001001110
1111101011111011
1111100011111101
1111101111101000
1111110111000110
10010110
1111111110001001
1111111100111100
1111110000100011
1111111010010110
1111110011001000
101001011
1101010001
11000010
1011
1111111011001101
1111101010001001
1111110111011110
10110000
1100010101
111100011
101001000
1100
10000011101
1111101101011011
1111101011010100
1111100110100101
1111110101100011
10100011011
11100110111
111000101
1011011101
1111110101100101
11011111001
1111111111100011
1111111110010100
10111010101
1111111001110111
1111110001011111
1111101110100110
1011110
1111110110001111
1111110011110110
1111101011011010
1101000110
110010000
10001010001
10010011011
1111100110
1111111110100111
1111111100101110
10001010100
101000011
101101000
1001001011
10010111111
100000
1010100100
1111111111001100
1111101011101000
1111101011011001
10010010101
1111111110101010
100110
1000010100
1111110011100000
1111100110100010
1111111010011111
11111100
11101100
1111111011111101
111000111
100101100
1111111011101010
100000
1110011000
1111001101
11000010011
100110010110
1111000000
1111111110100111
111110
11100101
1111111101000111
1111111101000110
1111110010000101
1111110
1111110111011111
1111111111100011
1001110101
1100111
1111101001100100
1101000001
1111110101111011
1111111001010001
1111101111110100
1010111001
11100000
1111110100100111
1111110110010010
1111111010011101
1111111101010110
1111111001100110
10101110110
10110111111
11011010101
1110111100
111101001
11001111
1111111101001001
1111111001000100
1111110100001100
1111101
1111110101010110
11101000
1111111100101010
1001011110
110101010
10001000100
1111101001101101
1001000010
1111111010101001
1111101111111011
1111111111111100
1110000001
1011001010
1111110101100101
1110110
101100000
1111111100011011
1010001000
10001101000
1111010110
1100111000
1101000001
1111111101110100
1111110011001100
1111101001001111
1111110001110010
1111111110100000
1111110101100100
1111101100100111
1111110000111100
1101001
11001000001
1111110110100000
1111111001011001
1111100000010011
10100110111
1101110
1111111011000110
1011001100
10101001
1111110111111110
1111111101100011
111111000
100101000
1100111
1111111110100011
1111110110101000
1111101110001000
1111110001110001
1111101101110101
1111100010111010
1111101111100011
1111110001100101
10101111
1111110110111111
1111100110101111
1111110011000111
1111100101010100
1111101110110111
1000011001
10011110100
1111111001100110
1111100000000101
1111110001000001
1111111010111001
10101000
1111111101100010
101111100
11100011
100110001
1111111100011001
1111110111111100
1111110100110110
1111111010110101
1111100011100000
1111110101001110
1111110110101101
1111110110010010
1111111100111011
1111111000001011
1111110111111100
1111111000111011
1111111010010110
1111111100011110
1111110001000110
1111101110010000
1111110000010000
1111111100000111
1100110100
10000
1001011110
1111100001101111
1111101001001010
1111111100110100
1111111010110100
111010111
1011101011
1100010010
1111110010011101
1111101100000000
1111101100001111
1111111000111001
100110000
1010110110
1111111110110111
1111111110
10110010
1111110110110101
1111111110100101
1111110001111001
1001111110
11110110
1001010110
1111111100111011
1111100010001010
1111110111000101
100111011
1111111101010000
1111101011011001
1111111100000110
1111110100110001
111101011
101011100
1001010
1111111001010001
1111110100010110
1111101100010010
1111100100101111
1111110111011010
1010011000
10101011101
1001110111
1110000010
1100100011
1111010100
1111111110100000
110111100
1100011110
11101101001
1000011001
10101100001
10000001010
1111101011110100
1111010011001010
111110001
1111111101110010
1000000
1111110101000000
1000100
1111101111000101
1111110101111010
1111111111000001
1111111100000010
1111111001110011
1111111100011000
1111111001000101
10100111
10100001000
10101100011
1000101001
11010101000
1101000000
1101111100
10101000000
1001100101
1111111000010110
1111111010000011
100000010
10111000111
100100001011
11011101010
1111110111111100
10101011110
1111111111110011
1111111011110011
1111011011011010
1001111110
1001000
10110001
1100011101
10000010001
1111111111111100
10011101
111110
1101001000
100001101100
10100001110
11000111011
1100011101
1001010010
10110011100
1000010011
1111111100001111
1111110011100111
1111101101100110
1001000111
1111101111101100
111111
10101001000
11111011000
1111001101
1111111110001111
11110
1111111000101100
10000000
1111111111100000
1111111101110110
1111110000101111
100010111
1000111110
101101101
1011100011
11001111110
10111011111
10011101010
10101110000
1101110001
11101000001
10000101001
10000000
1111101100010111
1111101111000000
1111110111100000
1111110011101111
1111110111001010
1111101111001010
1010000000
10010011000
10001000100
1111111111011111
1111111010010110
1000010000
11111010
1000101101
1111101111001110
1111101101000110
10100001
100110111
1111111010111110
110011010
11100111100
10100111100
100010110
10111101000
10010000110
10000110110
1001100000
1111101110010011
1111101110000010
1111111000010101
1111101000100111
1111110110010110
1101000
1111111110111001
11110100101
100000010110
1111111001000010
1111111101110001
100010100
1001011101
1111111001011110
1110010111
1111111000011101
110001001
1011110011
1111111101010110
1001010100
10110011001
11011001001
11110001110
11001010111
101100000
111110000
10000001
1111111101110011
1111110011110100
1101011
111011101
111101000
1010000001
100000011
11100001
1111111001100110
110111011100
1111110101111000
1111110111110111
111010
1111110000000110
1111111000001111
110001100
1111110101110100
1100000
1111111100111011
1111110010000000
1111110001101011
100101110
100101011
1111111101011010
1111111110000101
1111111001111011
100100010
1111111011010000
1111110000011101
1111110101010101
1111111011001110
1111111001100010
11011000
1111111110101110
1111110110010001
101101110
1111110101110000
101011111100
1110000101
1111111111010100
1111101011000100
1111101011010001
1111111000101101
1111111111111001
10101100
1111110111110101
1111101000000011
1111100010001111
1111100011101000
1111101110010001
1111101101011101
1111100101111000
1111100000101110
1111111000011000
1111111110100000
1111111111100101
1111111001001011
1110110
1111111101111110
1111110000011000
1111110111111100
1000010011
1111111001010110
1111111010011001
1111111010110000
100100111000
1010111001
1111111111011001
1
11010011
1111111010010100
110101000
10001000110
10000101
1111111110000000
1111111101010011
1111110011110001
1111110001111000
1111101110101100
1111101101111000
1111110101111000
100010011
1111101111
1001011
1111111111100001
1111111110011010
1000011101
1111111010111010
1101001111
10010100101
11001001110
1111101111011010
1110000
11101001111
1111111001010110
11001
10010011011
1111110110101101
1111011001
10101000111
1110111011
10111010110
10100010000
1011011100
1111111101101110
1111111110111011
1111111101010100
11110011
1000000111
1000001011
10000111101
11111010
10001
1111110001000100
1111111100111110
1001100110
10010001101
100111100100
110101011
1111110001101011
1111110000101111
1111101111110110
1111111110100101
1111111111100010
1011
1111101110110001
1000101101
11001110010
11101100100
11000011100
1110000101
1111111111111110
1111111100001110
10000010110
10001011011
1011111000
1101100101
110001100
10001111
11001
1111110101011001
1111111101011011
1001000000
1101011111
10110101110
11000110101
1111111110110000
1111110111011000
1111101010110110
1111110000000111
1101010
1111111110011111
100100
1111100110111111
1111100001011110
1111101111111111
1000000101
10010100110
10111010111
11110011111
1100110111
101100110
1111111100101010
1101111
10110101011
10011110111
1000111100
1111111111000111
1111111000111110
1010000000
10000111001
11000000100
111110111
1111110010
1111111101100010
1111101101100011
1111101010101110
1111101001110111
1100000
10101100
1111111111110011
1111100100100101
1111101100110111
1111100000000111
1111101001000110
1111111101001000
10000101
1111111011000001
101010110
1111111011111100
1111111101010110
1111111111100011
1111111100110100
10011
101110011
1111111111111011
1111110100110110
1011010100
1111111110010111
1101110
1100100111
1110111110
100000001111
101011100
11011010111
1111111101101110
1111111110010111
1111111111000010
1111111101110000
10010000000
111111101
1111011010111010
1111110010110001
1111111100100100
1111100110110111
1111110011011110
1111100100001100
1111101011111101
1111110011100001
1111100100110100
1111101111000111
1111110101011010
1111110011101111
1111101011110110
1111111111001001
1111110111011100
1111110100000011
1111111010001111
1111111100000100
1111111010111000
1011001101
101101011
1111111110010001
110100000
1111000
10100100
1101110
1111111101101011
1111110011011110
11010101100
1101001110
10001001010
110101011
101110101
10011001111
1101000101
10101111
1111111100110000
1111110101010011
1111111111000101
1111100100111110
1111101000001110
10110000001
1111111110000011
1111101001000010
1111110111001110
100010100
1111101111110010
1111100001001101
10100010101
1111111110001010
1111111111011010
1011111
10011000
1011110
1101
1111111110110110
1111110110110110
1111110111001000
101010
1111111000011111
101011100
1000000010
1111100111101101
1111110110101011
1111111010011010
1111100010010010
1111100000001100
111001111
11101010
1111111010111011
1111111100111101
1111111101000001
10001100111
1110111110
1111111001111101
1111110000100111
10011110
1010111
1101000
1111111111011010
