1111111111100111
1111111110100000
1111111111110001
1111111111011001
1011101
1111111101100000
1111111110101000
1111111101111101
11100
1111111110110000
1111111110100110
1110100
1001000
1111111000111100
1111110011010100
1111111001111000
1001010
1011111
1111111111111111
1111111101010101
1111111110111011
100011
101100
10001000
1111111111100111
1111111110101111
1111111111111111
110011
1111111110101110
1111111111010110
1111111111011001
1111001
10111
1111111111100110
1111111011101001
1111110010110110
1111101110001001
1111110000101001
1111101000001011
1111101111100010
1111100110101010
1111101001001001
1110001001
1111111001111110
1111010010000100
1111010010001011
1111101101001010
100111010
1010010101
1110010001
1111111100111011
1111111001010001
1100101
101110
1111111110001001
1111111101111011
1111111111011111
10011010
100110
1111111010000010
1111111100001001
1111111100010010
1111100000110110
1111010111001110
1111100010000010
1111110101101000
1101111000
10000001100
1111101110100100
1111110111100111
100111000
110110
1111110111011000
1111101100010100
1111100011001011
1100111101
1001111011
10110110
1000011101
100111110110
10100000001
111001110
1110001
1111111110001111
1111111101100011
1011100
1111110110100011
1111101100100110
1111110010011110
1111000
1111010010100000
1111101000010101
1111100111000100
1111110001001110
1111111110000000
10011011101
1111111001100110
1111101100111000
11011100
1000101010
11001001
1111110110011111
1111110011000001
1001010
1111111101011100
1111110101101110
1111111001101010
1111111011010001
1001001011
11000010
10011010111
110110
10100010
1111110011111101
1111100111101100
1111101001110000
10101110
101000011
1111111011100100
1111101010001000
1111111100011111
1111111001000000
1111100100010000
1111110111000100
1111110001011101
100110000
1111101000010000
1111110001001000
1111101011110101
1111101011111100
1111101011011101
1111110010100100
1111110110000001
1111100111011011
1111110000101011
1111111100111111
1111111100101001
1111111010010101
1111110000111001
111000110
110001
10001111
1111110010000111
1111111111100111
1111110001001111
1111010001
1111110111111000
1111101110011000
1100100101
1111111110010101
1011101110
10001010111
1111111111111000
1010111111
1100000100
1110010101
1111111001110010
111000101
1111110010001111
1111111101111010
1111110111110000
1111101111110000
1111101111000010
1010011010
1100101011
1111111000110110
1111110000011011
10001110110
1111111101010001
1111110110111001
1111110111011100
11000010
10000000010
1100011000
1000100111
111111
1100011
111011010
1000001010
101011011
100111111
1111111111101111
100001100
1111111100000100
1010110100
1101101101
1111111110101110
1100011
1111111010010100
1111110010110001
1111111111101101
1111010000
1001101110
10101111001
1011110010
10100000100
1000001101
1100000010
1111111001110000
11100100101
10101100110
1001001101
11000010
1111110110101110
1111110110001001
100101011
1100100000
101100001
1111111011000100
11100101
1111111010100011
1111111011111010
1000000100
10011011011
100001011
100101100
1000100000
1111111100100010
1111111100110100
1111000001
1111110001011111
1111101111000111
10100010111
11011011001
1111101011000000
100101
111011000
10010011111
111100101
1110011011
1111110000011011
1111111100001011
10011101
1010011000
100100100
1111111111000111
1111110011010110
1111111010110000
1000111101
1010100011
1111111110001000
1111111111011011
1111111111101000
1111110111001111
1111110111100100
1111111011110110
1111101001011001
1111101001000000
1111101101000101
1111110101111101
101000001
10001010100
100110011
1000101101
1111110010100000
1100101011
10010100
1111111101110100
1111111100001111
1111111010111010
110010100
110000000
101010001
110011111
1001000100
1110100101
10100101011
110010111
1111111101100010
1111111011101100
100010100
1111110000110000
1111110011010111
1111110100111100
1111111100111100
1111101001000110
1111111100000110
1111111000101100
1111111010101001
10101011010
11001010
110101101
1111111001101110
11100010011
11101000
110110010
1111110101101011
11101011
1111110110010011
1100110011
1111110010111001
1111111011101100
1111
1010110111
1100000
111101111
111111111
1111111100110011
1111101100101101
1111101111100110
1111101110010111
1111110110001101
1111101011110010
1111110001000010
1101101011
1010111000
101011000
101100001
10000110010
1111100111110110
10001100
11011001100
1111110101010101
10
1111111000100101
11111001
110110111
101000010
1001011110
110000001
1101100110
110110101
10111000
1011110001
10011011110
1110111
1111101010111000
1111101111010110
1111110011000000
1111110010101011
110000100
10010111111
10111010110
10111011011
1111110010101111
1111111110101101
10001010110
11001010001
1011111100
11011000101
1111110100100111
1001100
1111110011111000
1111101110110111
1000101010
1111111011010001
10001011
10100010010
1101101001
1110001000
1111111111011101
1010000011
1000100010
1111111000001111
1111111010011111
1111101011101010
1111110100001000
1111101101000101
1001110001
1111010001
101111101010
101100100001
11011011100
1111101010
1111110000011011
101110001
10101111000
10100010100
1101111001
1111111101101011
1111110101110101
1111111010100010
1111111001110111
11110101
11100000000
10101100010
111001110
10000011
1111111100000011
10100010
1001110010
10100111
1111111110001101
1111101100111011
1111101110110111
100000100000
100100101100
100010110010
1000000101000
110101111000
1111111000
1111110101111000
1111101101100100
1111100110
10111001
10010110
1111111011001000
1001000001
101011
1111111110000000
1111111000011100
10000110010
11001000010
1001111001
1111111010101010
1111110011011110
1111110100010001
1111111111011110
1001111
10001110
1100011000
11111110110
111100000101
1011011100011
110011011011
100111111111
1000001010010
110111010101
110101100
1111110010010001
1111111001111010
10001100010
1111110000100100
1111111111100010
1010111101
101010
1111100111111000
1111110101000110
11110111
100011011
1100100001
1010110010
1111111011100101
1111100101101010
1111101010111111
10000010
10001011
11011110101
11111110111
101100110000
1110001001110
1100110100011
1000011110000
100101000000
101001010011
110100101011
10010001111
1111111111010100
1110010000
1111111110000101
1111110000010101
1111011011010000
1111111110110110
1111111011101101
1111111000011101
1111110100111111
1111111111011010
1111110111011010
1111110111000001
101011111
11011011
1111110101000101
1111110010000011
1111111110101011
11010110010
11101101111
100100101110
11111010010
100111100101
100101111001
1011011110
1111110000111000
1010011111
1000111100
1111101001001100
1111101111111110
1111111110010101
1111111010001011
1111110101110110
1111100011000011
1111110111111111
1111111000100101
1011110001
1001010100
1111111100000100
1111111111101110
1110110
1111111100111101
1111110000110011
1111110001010000
1111101110110110
1101001110
1110110111
1000100101
11101100110
1000111110
110001101
1110111010
1111111101010001
1111111110000011
1111111111111011
1111110000101111
1111110110011111
1111010110100100
1111111101100101
1111110110101000
1111110001000010
1111111001000010
1111110000000000
100100110
10100110100
10111101
1111111000010010
1111110110001011
1111110111100010
1111111110000111
1111110001101010
1111110100101011
1111111100111100
11110110
1100111111
1110010000
1000110000
1111110110100011
1111101110011111
11110100
1000010
10111101100
1111101110010100
1111101001000010
1111100101101111
1111100000001011
1111110101001110
1110111111
1111111010011101
1111101000011001
1111110010101110
1111011000
10001001001
111110
1111111000011101
1111111011010100
1111111000111010
10100100011
1000001011
1111110100101100
10111011
1111111000011101
1111110111101000
111111
1111101110111100
1111110101100001
100101110
10010011111
10110000011
1011000011
1111111010100000
1111101100111000
1111000011000000
1111100110111000
1111111110000100
101110
1111110000101010
1111001110101000
1111100100000010
1010000
110110001
101001001
10000100
1111110111011110
1100010101
1100110110
10101100111
1101111110
101000010
1111111010000010
1111110010111110
1111101010110010
1111110001001010
1111110100010010
1111110011010100
10111100
10100111000
101010001
11110010
1111111010000100
1111001111001010
1100011100
1111111010010010
1111101011101001
1111011011001111
1111011000011111
1111100001010000
1111111001100011
1111111000001111
1111111010101011
1111111110111011
1111111100111011
111000000
111111011
10001001011
110110011
10001
1111101101101111
1111110011110100
1111101011100101
1111110010101001
1111101101111101
1111101111010011
101000100
101110101
1111110111111101
1111111011010110
111000011
1111011011100111
1111111110101101
1111110101011111
1111110001111100
1111011100000101
1111101000001110
1111111010011111
1111110001110101
11010101
1111110101011011
1011100
1100101
1001011101
10100010
100101001
1111111000001000
1111110110001100
1111110011000011
10110100
1111110101111001
1111110110000111
1111110111110011
1111101011101000
1111110011100111
1111111001100010
1001011010
1111111000001100
1111010000011000
110111
101000
100111
1111111111110000
1111101001010011
1111010110001110
1111101001010101
1111111011010110
10000101
110110100
1001000100
10011101000
101110110
100001000
1111110111100111
1111110001110011
1111111001010000
1111110010000001
1111110001100001
1111111010000110
1111111001001011
1111111011100000
1111101010000000
1111110110000111
1111110111110110
1000100
1111110000100111
1111011110110001
1111110010011100
1111111110011001
10010001
10001000
1111101111001111
1111101011000001
10110010
1010100
11000101
1111111111101101
1000111
10111100
1100001
1111110111101100
1111110100101101
1111110011001010
1111111110111001
1111111011111011
1111111111101111
101000001
1111111110000000
1111110111110111
1111101011100111
1111111000010001
1111110011100000
1111100100
11100101
1111100111101001
11010
1111111101110100
11110
1111111110111101
1111111000011011
1000100000
1101011001
1111111010000110
1111111110100111
1000010010
1111101001110101
1111110101111110
1111111011110001
111111011
1111110110100101
1111101111100101
1111110011010110
1111110101110111
1111111100011011
11110100
1111110111101010
1111110011011111
1111101110011000
10001111100
1110110001
10100101000
10111001000
10000100110
1111111001011101
1111111110011110
1011
1111111111111001
1101000
1
100010110000
110010011001
101001110101
10101
1010010010
100111010100
11011100111
11000110010
1101010011
10011101001
101010110000
1110110001
1111110001011100
1111101011011100
1111111001011010
1111111010100000
10101010
1000111011
10001001100
10110001100
1100001
10010010110
1111111110101010
1100110
1111111110000011
1111111110001011
1111111110111100
1111111101010100
1101010101
10000110001
101110001011
111100110010
10011111110
1011111110
11011100010
110110100101
110000111101
1001110110110
101101100011
10101111101
101010101101
10010101101
110001001
1001010010
1111110011111100
1111111000010100
1111111100101000
10010101
100010
10001
1111111111110101
1000000
