1111101111011011
1010011
11010110001
1111110011010000
1111101111011010
1111101100101000
1111100011100011
1001100011
1111011100110010
1111100010100111
10100110010
10010001011
1111010001001000
1111101001111011
1111111101010010
11100110100
101000111001
1111101011001011
1111111010101001
1111101000010011
101110110001
1111110110000111
11001011011
1111111010010111
1111111101011111
100010000000
10110110110
11001100101
1110111000001110
100011111100
