1111110001001010
1111011100000010
1111111101
1111111011000100
1111010010011100
1111100001111110
10011110000
101111101000
101111100
1111110111101100
111001000
1111100000101000
1111101
1111111000010011
10001011110
1111000110111011
101111101
1111101010001000
1111011010000011
11110000001
1111110110100111
10111
1111001111110110
1111010100101101
10000110010
10101111000
100011100101
1111101111001101
11100010
1111111110000111
