10101110111
1001100
1111011111001011
1111101011101011
1110110111110101
101100111010
1111110
10110001111
1001111011101
101001111
1101100
1111111111100111
110110001
1100001011
100000000101
1011010100
1111111000011101
111111110
11
1111011110000100
1111001100000100
1111101111100101
1111111011100111
1111100111011000
1111000001
1111110101000101
1111111100011010
1111001111110110
100000011011
1111000111110011
