1110111101
1111011110100011
101010
1111100100110110
1111101010001000
1111111111011010
1111110010001110
100001011101
100101000010
1111011111110010
1111111101001110
10111000001
1111111111101011
1111110001100011
101101
1110110110100100
10111100
1111100001011100
1111100011010000
100100100110
10010001101
1111010111
1111111001011000
1010110
1101111100
101111000100
11011100001
1111111000111010
1111110010111100
10011001
