1111101001101101
1111100111011011
11001000111
11110010011
100100100000
1111011001011100
110010001000
1111110110011110
1110101011100001
100010100001
1111111110111101
1111010000000110
1111111101000001
10001010100
11100000101
10001011001
1111110011101011
1111111011000111
11110100011
1111110110111101
1111110110101010
1111110110101010
1111111100111010
1111011011110010
1111110111010000
1111001000111100
1111110000001101
1111110100011111
1111100100010101
1111111110010001
