1111101111001000
110000001011
1111111001001010
100111100
10101011011
1110010010
1111110111
1111100110110101
101011001110
11111101101
1111111100001001
1111100111000011
10100111111
111001111
1111101011011000
100111010011
1111011100000001
110011011111
111110110
1111011110111110
1111110101110010
1111110000110111
10010101
110010101011
1111101000001010
1111010110110000
1111110111110101
1111110111001100
10000110011
111011000
