1111011001111110
11000100011
11111011000
1111111011100010
1000110110
1111010001011111
10100000010
1111101100000011
1111010101000101
1111111000010010
101100101011
100000001010
1111011110100101
1111011100001100
1111101110110100
100100010010
100001111
1111000101
1111101100010101
1111101110111001
101011100110
11010100100
1111111110100010
1111001001101000
1111101110010011
1111111110011010
100111000011
100001000100
1111010010110000
11101101101
