1111101011011110
1111101110111110
100000100
110100100
101010110010
1111100110010011
11110101101
1111011111010101
1111010100000101
11011110
1001111110
1111110000010010
10011110000
1111101111010001
1111010010110001
1111100010110000
1111101001111110
1111001000
10110011100
1010100011
1101001001
1111111110010100
1111110001110110
1111111010100111
1111100001011000
1111110111011110
1011110
11111110011
1111111001000100
1011000010
