110010111100
1111101100000101
111100101001
1111100101111101
1111110010100001
1111011111111101
1111101010100000
1111101111011011
1111111101100010
1111110110110111
1111011110111000
1010000000
10110011010
10111000101
1110110100000110
1111100010101110
1000011000000
1111100111101001
1111101001110110
1111100001010110
10010110001
11100100100
1111110001010001
1111011101
10110101110
1000111110110
1111111000001000
111010100010
1111001111011111
1111011001
