1011
101010001010
110110
1111111100100100
1110111111101101
10101100011
1111111001101100
1110101010010101
1110001110
1101010011
1000010100101
101001010010
111111
110011010
10110111101
1111011001110100
1111010111111100
1000100111
1111011110100000
1000111001110
1111011000010010
1001110100
1111001010111010
1000001101
1111111100110111
1111100110010110
110111111110
1111111110101010
1110001100010101
100011011011
